#version: 0.2
Ġ t
h e
Ġ a
i n
Ġt he
e r
o n
Ġ ,
r e
Ġ s
e d
Ġ o
Ġ w
n d
a t
Ġ .
o r
i t
Ġ c
Ġ f
e n
i s
Ġo f
e s
a r
Ġ p
a n
a l
Ġ in
in g
Ġ b
Ġa nd
a s
Ġ d
i c
Ġt o
r o
Ġ m
Ġ h
i on
Ġ T
Ġ re
l e
o u
Ġ =
Ġt h
Ġ g
en t
Ġ A
i l
Ġ S
Ġ @
Ġ 1
s t
e l
o m
c t
Ġ Ċ
a m
Ġ n
Ġ l
Ġ C
Ġ "
a d
Ġ e
i r
o l
Ġw as
ĠT he
i v
Ġ on
l y
o t
Ġf or
i m
- @
Ġ@ -@
Ġb e
it h
o w
i g
a c
Ġa s
Ġ '
i d
Ġ M
u r
at ion
Ġw ith
a y
Ġ B
e t
Ġ I
Ġ he
Ġs t
s e
u t
u l
Ġth at
Ġ 2
Ġa l
t er
Ġ F
Ġd e
Ġ P
c e
v er
Ġ H
Ġ is
r a
Ġ J
Ġ N
u n
o d
u m
Ġw h
Ġs e
Ġb y
Ġ G
Ġ R
Ġ1 9
Ġh is
a v
Ġa n
u s
Ġa t
Ġc on
Ġ D
c h
t h
e m
Ġ )
Ġ (
er s
i es
Ġ E
Ġ W
a g
a nd
he r
ro m
Ġ L
or d
a in
p e
re s
er e
r i
t s
Ġ2 0
Ġc om
Ġw ere
Ġp l
o c
Ġp ro
Ġ it
o s
p t
i f
at e
al l
am e
ig h
Ġf rom
e w
l d
Ġo r
is t
u p
il l
o re
at ed
it y
Ġa re
Ġs h
ĠI n
es s
Ġ O
r u
or t
ic h
es t
Ġ v
i an
an t
a b
ar d
Ġ r
re d
Ġc h
i p
q u
o p
Ġ â
Ġâ Ģ
g h
iv e
ow n
Ġ U
i a
u nd
ar t
ac k
l u
a k
Ġg od
i al
Ġe x
Ġ le
Ġwh ich
a p
m ent
o st
b er
Ġs u
Ġ ;
ct ion
ou r
Ġhe r
on g
e ar
Ġ y
Ġ K
ĠS t
in e
Ġh ad
igh t
Ġ V
Ġn ot
o v
av e
o in
t her
Ġ k
it ion
u st
ar y
Ġre c
Ġpl ay
o g
ĠC h
Ġthe ir
Ġ20 0
id e
ord an
Ġw or
ĠJ ordan
ĠâĢ ĵ
as t
s o
ol l
p l
i e
r an
el l
r it
ig n
e y
Ġal so
im e
ĠH e
Ġa r
Ġp er
u e
or y
ou ld
Ġ un
f f
Ġh as
f ter
Ġ ro
f t
Ġa ir
Ġwh o
u re
Ġ 3
0 0
ol d
Ġ1 8
w o
it ies
c c
e ct
g e
Ġin c
al ly
ou n
ation s
. @
Ġ@ .@
Ġt e
Ġa p
Ġ 4
Ġcon t
ou s
as on
Ġon e
Ġ20 1
p er
Ġa b
p h
Ġin t
as s
ir st
om e
i z
Ġal l
Ġ im
Ġs c
oc k
Ġgod s
Ġt wo
Ġb ut
d u
o k
is h
Ġw he
Ġit s
m er
p ort
re e
at er
ou t
ac h
he d
Ġh ave
a ct
on d
Ġd es
ic t
Ġ19 9
Ġ en
Ġf irst
an ce
Ġd is
Ġo ther
Ġ 5
Ġg ame
er v
Ġy ear
Ġa g
Ġof f
el y
l es
al s
ou gh
Ġc l
Ġm an
t e
Ġth is
u b
ĠT own
ad e
ul l
c ed
r y
Ġs he
r on
en ce
ur ing
se nd
ĠTown send
Ġ j
Ġp art
a re
b um
Ġal bum
res s
i le
u gh
ic al
ent s
o ver
v i
Ġ up
Ġre g
ul t
Ġse ason
ag e
Ġcom p
lu d
ĠT h
i re
ic e
Ġt ime
Ġo ver
Ġm ore
Ġ :
ra ft
, @
Ġ Y
Ġa d
il d
Ġ@ ,@
ac e
re at
or m
Ġn e
ow er
Ġa fter
g y
ĠA l
Ġthe y
ing s
Ġbe en
w n
Ġre s
Ġbe c
Ġrec ord
Ġthe m
Ġo ut
ĠE gy
ĠEgy pt
h ip
ul ar
ĠR e
Ġcom m
Ġb as
ĠS h
ur n
Ġs pe
ar k
i ed
Ġf l
Ġp re
ĠF ey
Ġ us
it ed
ĠI t
Ġt r
Ġre m
ot h
Ġh im
am es
ĠA r
an s
Ġn ew
c k
ion s
Ġte am
u d
Ġ 6
Ġ und
or s
Ġg ro
i b
ĠU n
k e
u se
Ġf in
Ġre l
Ġe v
k y
ro ugh
Ġfor m
Ġwor k
Ġinc lud
Ġa ct
ĠD e
Ġre p
ab le
Ġ 7
at es
Ġm ost
ou nd
Ġcon s
Ġ 8
it e
Ġf our
Ġon ly
v el
w ard
ic an
Ġre t
t le
Ġ Z
Ġs p
ĠS e
Ġch ar
Ġund er
t en
Ġin ter
ic k
Ġint o
Ġs y
f orm
o se
Ġc ent
ub l
c raft
f er
n ing
Ġas s
c ond
Ġw ould
Ġth ree
g an
Ġc ar
Ġp r
ĠA n
t ed
Ġde ities
Ġag ain
in d
er ed
Ġb u
ri b
ĠEgypt ian
ĠS he
res ent
j ect
Ġd oll
Ġd uring
Ġg old
ation al
em ber
ĠO n
Ġdoll ar
c es
o y
Ġs up
is s
Ġm ade
Ġde c
Ġpro du
er n
le as
ĠN B
on s
Ġp oin
ĠA s
o ok
en er
Ġth rough
el f
Ġat t
i x
r al
w e
ro und
Ġe ar
ĠG A
Ġf e
Ġbe ing
a il
v ed
Ġ 9
ĠN ew
ak e
Ġair craft
Ġa cc
ou th
Ġhis t
iv a
ter s
w ay
Ġd iv
Ġk n
a ir
he s
Ġa m
Ġs o
Ġth an
Ġde p
oll ow
ĠSh iva
e nd
Ġo per
or th
en s
Ġm e
ĠT ru
Ġe nd
c ial
o h
Ġo b
Ġw rit
le ct
Ġman y
ĠNB A
j ill
on e
Ġs er
Ġs ome
Ġm et
Ġbe t
Ġse cond
Ġwhe n
ĠTru jill
e b
p p
Ġp ol
Ġb oth
Ġn o
if ic
Ġap pe
ĠTrujill o
l and
ĠA t
ot her
ar g
Ġin d
Ġre leas
et s
Ġab out
e e
Ġthe se
or k
Ġn um
ter n
ubl ic
er m
Ġs ur
Ġc an
Ġg o
Ġl ater
we en
i red
i ous
at ing
Ġc oin
Ġc ould
Ġap p
a h
t on
v e
v ol
iv ed
Ġsu ch
Ġar m
oun t
a z
l ed
Ġc o
is e
as h
Ġm in
Ġm ain
Ġsh ip
Ġwhe re
Ġchar act
d er
e op
re n
Ġs m
at h
is m
is hed
Ġm on
pe ct
Ġsu b
ĠTh is
Ġrem ain
Ġser ies
a j
Ġw ell
Ġb ro
Ġb el
Ġse ver
all ed
Ġdes ign
d ition
Ġf ollow
oc i
f ore
u g
Ã Ń
or n
it tle
Ġp os
Ġwh ile
ĠR ock
ĠV al
ran s
Ġs a
Ġo wn
Ġb ack
Ġm us
am p
over n
Ġus ed
e ver
i ke
Ġt ra
al e
Ġre ce
Ġ19 8
Ġthe re
at her
ic s
Ġh um
il y
Ġhe ad
ĠJ oh
Ġbet ween
Ġ qu
Ġp h
Ġp ers
Ġd o
Ġm ov
ĠA ust
ĠA fter
st r
om in
ĠC om
im es
ĠAl l
Ġagain st
l ay
u res
Ġh igh
ion al
il m
Ġle ad
Ġoff ic
i el
t y
u al
Ġt rans
ig in
ĠM ay
Ġpl an
Ġ ent
is ion
an g
ro l
Ġg ames
Ġe le
Ġ19 2
ction s
Ġdis c
Ġsm all
ĠJoh n
an k
Ġg ener
ĠC ol
un g
iz ed
Ġim p
vel op
a red
b ers
m b
o b
u ed
Ġa c
Ġc are
ar ch
Ġp ower
Ġd ay
il ot
ow ever
ĠB ull
Ġde f
Ġde m
ri a
ment s
Ġsever al
t ing
Ġs ign
Ġs erv
is ed
Ġb l
Ġg u
Ġbe gan
Ġde velop
Ġan y
th ough
if e
00 0
Ġbec ame
Ġrep resent
Ġret urn
p r
u red
Ġthe n
id ent
Ġper form
o ot
t ain
Ġm em
Ġh and
Ġe ach
ur y
Ġis s
Ġwor ld
Ġyear s
vi ew
Ġpoin ts
Ġhist ory
Ġkn own
p or
Ġw in
is ts
Ġd id
Ġd if
Ġl oc
Ġbe fore
Ġ19 1
av es
os ed
ĠVal ky
b all
Ġ est
Ġ 000
Ġc alled
ĠB l
um b
Ġor igin
ard s
Ġ18 6
Ġinclud ing
A A
m an
Ġ ra
Ġc re
ĠA m
om en
ce pt
Ġpart ic
Ġspe c
eop le
Ġcare er
c ess
Ġin f
ĠA ir
ĠB e
et y
ag ed
te nd
Ġsy n
s on
Ġa er
at on
Ġc rit
Ġf ig
Ġf ilm
Ġ1 5
ĠI nd
Ġst ar
Ġst ru
Ġst art
Ġal ong
Ġan n
Ġle ft
Ġplay ed
Ġgro up
Ġnum ber
Ġmus ic
e z
k et
p en
s ide
Ġm y
il ity
ly ing
ĠE aton
ĠL ittle
ĠâĢ Ķ
Ġcont in
Ġdes c
iel d
ĠValky ria
a w
i er
Ġt em
he n
Ġs ame
Ġw ar
Ġl ong
ad er
ir d
ut e
ra ph
ĠW h
ĠL e
ĠK ing
cc ess
oun g
ild ing
ĠBull s
re as
it s
Ġp res
Ġth ough
il t
st ru
Ġl ike
ĠC ro
iv ely
id ed
av y
ĠUn ited
a pt
c o
o od
p ed
s en
in ed
in ce
re ak
at ive
ĠA mer
ĠB lu
ĠN o
Ġcon c
ĠE n
and ing
Ġsh ow
Ġdiv ine
Ġreleas ed
Ġcharact er
Ġfollow ing
f ul
g g
i o
o ff
u es
x t
Ġs ong
Ġp ur
Ġp ort
Ġp ilot
Ġg iv
ĠI s
ut ion
ĠP h
ĠJ ack
Ġ19 4
ĠW ar
Ġv ar
Ġtr ad
Ġbel ie
Ġrece ived
s erv
v ent
in t
Ġb and
Ġd ist
Ġm il
ĠB ark
ra ct
ĠN ov
Ġse en
ĠCh ar
ire ct
aj or
Ġpers on
s elf
Ġ 0
in es
Ġf ound
Ġp ublic
Ġg overn
Ġ1 0
ĠC on
ĠThe y
ĠI I
Ġst ate
Ġsu ccess
Ġfe at
Ġsa id
H L
g ed
o ol
r ing
s p
s s
Ġc ol
Ġ1 3
Ġ1 7
ol og
Ġpro ject
Ġex p
Ġplay er
Ġsup port
l id
v en
y l
Ġ ver
Ġ use
in s
Ġd am
Ġd own
ĠC ull
ir c
Ġst at
ut h
ĠP ar
em ent
Ġr ight
ĠU K
Ġ3 0
Ġcons id
Ġear ly
Ġoper ations
Ġappe ar
Ġapp ro
ĠCull en
a x
a use
c on
u ch
Ġ $
or ing
an n
an ge
Ġth ird
ĠS outh
ĠC ar
ĠM ader
Ġcomp le
ĠY ork
Ġrel ig
Ġact iv
ĠCol umb
Ġdesc rib
ĠBlu e
ĠBark er
ĠNov ember
A S
u ally
Ġf am
Ġp rom
Ġb at
ic les
Ġre view
Ġ1 2
ĠF I
un e
Ġim port
Ġcl ass
ĠMader o
a ction
Ġs et
ed y
ed er
Ġw e
Ġp op
Ġto ok
Ġm od
Ġre al
ĠA d
Ġn ame
ĠB rit
ĠF ern
od rom
Ġan other
Ġpl ace
Ġpro t
ant a
qu ad
og raph
Ġ201 1
Ġen g
ĠCom m
lay er
sen al
ĠJack ets
ĠFern and
p le
s hip
v in
it ary
Ġc aves
ĠA pr
Ġ1 1
Ġn ear
Ġl ife
Ġe m
Ġe ff
iv er
Ġ19 3
ag ue
ri ed
ak ing
Ġad dition
ib le
ĠFernand ez
ĠApr il
c l
d om
Ġa round
Ġw omen
Ġf ive
en n
Ġp eople
as e
Ġd et
Ġm iss
Ġre qu
Ġg un
Ġl ast
Ġe ver
ĠThe re
ĠF in
ĠF or
ore d
ĠSt ates
ov e
Ġar t
Ġro le
Ġob serv
Ġinf lu
b le
e p
i ent
o ber
r ay
Ġc irc
Ġf t
Ġf ather
Ġin st
Ġh old
am ed
Ġe p
Ġhe l
ĠN orth
Ġor der
Ġv i
ĠCh ron
vi ation
ward s
Ġhum an
a el
in ation
Ġs ing
Ġw ay
at ory
Ġf em
is ter
Ġof ten
al f
Ġin vol
Ġd ue
ent ly
om et
Ġn ov
Ġbe h
ac ed
Ġst ated
Ġal though
ch ool
pl oy
Ġcont rol
Ġreg ime
pp ing
ĠColumb us
ĠChron icles
Ġnov el
l ing
l os
Ġ /
in a
re ad
at a
Ġf lying
Ġg reat
ĠS c
Ġl ed
ĠM e
Ġwith in
ĠF l
ĠN HL
ĠG u
Ġcoin s
ĠBl ack
ĠBrit ish
o x
Ġt urn
Ġs im
Ġs ix
it u
Ġc er
en g
as k
Ġm ajor
Ġg re
ĠC ity
iv il
ul f
ĠF eb
ag es
ord ing
Ġcom mer
ru ary
Ġch ild
ĠU ran
ĠSt ra
Ġ200 8
Ġ201 0
Ġbas ed
Ġev ents
Ġprodu ced
Ġdif fer
Ġpartic ular
Ġaer odrom
Ġdescrib ed
ĠFeb ruary
i od
v an
y d
at ure
or ld
Ġc ave
Ġp ar
Ġb ook
Ġm ay
Ġl im
ĠThe se
Ġst ory
ĠF ran
ĠJ une
if ied
ab l
og ue
Ġ200 9
pl es
Ġinc reas
ron t
Ġj ust
Ġbu ilt
ĠKing dom
ĠAmer ican
Ġfam ily
Ġimport ant
ĠUran ia
a i
i k
p ite
r ist
Ġ es
Ġt erm
Ġs l
Ġs ol
Ġc r
Ġc over
ar ian
Ġd irect
ro p
Ġm uch
Ġre f
Ġe qu
id es
Ġst r
Ġst ud
ĠH is
ĠH owever
ĠJ an
ĠW orld
ain ed
Ġall ow
vi ous
Ġne xt
Ġres p
Ġcomm un
ĠAr k
Ġmem bers
Ġest abl
uth or
ĠFin als
f ield
o at
t il
u ary
in ing
at or
Ġc ount
Ġf ac
ar ge
Ġp ost
Ġp ass
Ġp resent
ro ss
Ġm ake
Ġl os
Ġl ist
se mb
ĠW ith
Ġpro v
igh ts
ĠO r
Ġle g
Ġplay off
Ġ200 6
Ġres ult
Ġhim self
Ġfin al
Ġev en
Ġpr im
Ġbu ilding
Ġdep ict
Ġorigin al
Ġstru ck
ket ball
ĠPh il
k en
l s
l ine
n e
v es
y p
in k
Ġo pen
at i
Ġc reat
ar a
Ġre action
om an
Ġn amed
ac hed
ur al
Ġhe ld
ul ation
ĠF air
pt ed
our t
Ġun til
iz e
Ġcomm and
Ġpre vious
ĠDe vin
Ġthrough out
ÃŃ n
ĠAust ral
stru ction
Ġmil itary
Ġconsid ered
ĠFI T
quad ron
a u
d ess
m y
n er
r am
v ati
y s
Ġa ver
re t
Ġs outh
Ġw on
at ch
ic a
ic o
ic ally
Ġh alf
ĠT e
ĠA ug
ĠS layer
am b
Ġl arge
Ġe ast
Ġde al
Ġde ath
ĠP ro
ĠH er
av ing
ĠD es
ag ogue
Ġor gan
ill ion
Ġsh ot
lu b
Ġgod dess
Ġplay ers
Ġsc oring
ĠY oung
ĠRe p
ĠAs s
Ġatt em
Ġmet al
ĠAt l
Ġreturn ed
ĠBlack ie
ĠStra pping
ĠAug ust
N L
Ġ el
Ġt imes
he st
Ġs ince
ar s
Ġd el
Ġto w
ro w
ou se
Ġth ose
il ar
ĠS NL
st em
el ph
Ġl ive
Ġl arg
ad elph
iv es
Ġde ity
ĠJ ew
ĠJ ames
us ed
ĠE m
ag re
ĠL los
pt ion
ĠU S
ĠV arg
Ġship s
Ġmon th
Ġlead ing
Ġtrad ition
ĠPar vati
Ġcommer cial
adelph ia
ĠLlos a
ĠVarg as
Ġt ro
Ġa uthor
Ġs ent
at ely
Ġin it
Ġg r
ent ion
ct ober
Ġn ow
Ġn ational
Ġfor mer
ĠH ung
ĠG ame
av en
Ġat tend
Ġcon f
ĠD ar
ĠL ad
Ġcom edy
Ġor d
ist ed
ĠO ctober
Ġ201 2
Ġcomp et
Ġass ass
Ġcar b
Ġpoin t
Ġatt ack
Ġpol ice
Ġcontin ued
ĠWh ile
Ġgovern ment
AS P
Ġsing le
ĠArk ans
f ic
i um
s ion
t i
Ġ [
Ġ ]
at ors
Ġc or
Ġc ity
Ġc ap
Ġf ore
Ġf oot
en se
Ġp ut
Ġb r
Ġd est
ro te
ĠT r
Ġ1 4
Ġl a
ir on
ĠM an
ĠM arch
Ġst y
Ġ2 5
ĠR a
Ġ19 6
ĠD ÃŃ
ĠD omin
Ġcom b
ist ic
ial ly
Ġle vel
pl ay
ran ch
Ġper iod
Ġro und
Ġro ck
Ġj oin
Ġne ed
Ġsy stem
ĠEgyptian s
iss ion
oci ety
Ġoffic ers
Ġfig ure
Ġmy th
Ġdiffer ent
Ġcount ry
ĠArkans as
ĠDÃŃ az
c y
n ess
o or
v ing
y m
Ġ if
Ġs k
Ġs elf
Ġo cc
Ġw rote
it her
it ical
Ġc ame
Ġf un
al es
Ġh owever
Ġre ag
Ġg lid
Ġ1 6
Ġl ate
Ġl ab
Ġl ine
ĠM ich
ĠM int
se qu
Ġpro f
Ġsh r
ĠCh rist
Ġ200 7
Ġ18 5
ect ed
ĠZ agre
Ġhist or
Ġappe ared
Ġpos ition
Ġph ot
Ġdevelop ment
por ts
Ġsyn agogue
Ġgiv en
Ġpop ular
Ġfem ale
ĠJan uary
ĠDomin ican
ĠZagre b
e or
e ad
m ber
p os
y n
Ġ ide
Ġt it
Ġs omet
Ġo pp
Ġc al
Ġc ult
en e
es ts
Ġb est
Ġd en
Ġh ost
Ġh our
Ġre st
ĠA nd
Ġl ess
iv ate
et er
Ġst ill
ĠJ u
Ġ19 5
ĠD uring
ĠW ASP
pe nd
Ġare a
ak es
Ġrecord ed
Ġtr ack
Ġtr ade
Ġgro w
lect ed
vol ution
Ġloc al
ĠCar ol
ĠFIT s
ĠAtl anta
V P
a im
i ers
l an
m ed
v ision
y ing
Ġt ake
in ess
Ġw ill
Ġf ict
Ġf ront
en ced
ic es
Ġm en
Ġre pl
il ver
Ġl ight
iv ing
ĠM VP
ĠB u
ĠB y
Ġst and
Ġ2 1
Ġ2 4
ĠG re
ĠR AA
Ġ19 7
ĠE u
pt ember
Ġk m
Ġalbum s
hip s
Ġcomm on
Ġspe cial
Ġinclud e
ĠSe ptember
way s
Ġind ust
Ġgo al
oci ation
amp ions
ĠCro at
ĠEn g
Ġpilot s
Ġbelie ved
Ġbeh ind
ĠPhil adelphia
Ġtow er
ĠJew ish
Ġcarb on
ĠRAA F
f ord
g et
g ress
h ib
i or
i ber
m e
o pe
p ar
r ican
y pe
Ġa v
Ġs ulf
Ġo ld
it er
it ing
Ġf ree
Ġp at
an a
an ces
Ġd ra
Ġd raft
Ġm illion
ĠT ower
ĠA ct
ĠS ome
el t
om b
ct ed
Ġn orth
Ġl and
Ġfor ces
ĠM ost
ĠB ar
Ġ2 3
Ġis land
ĠN avy
Ġse e
ĠE r
Ġv oc
ĠU p
Ġle ague
ap s
Ġsu gg
ĠSt ar
Ġwor ship
Ġ4 4
Ġcont ract
Ġ201 3
Ġout side
Ġbas ketball
ĠUn ion
ĠZ r
ĠZ ap
Ġcent ral
Ġdollar s
Ġam ong
Ġpol itical
Ġcharact ers
Ġbl ock
Ġdevelop ed
Ġcrit ic
eder al
a pe
g in
n ed
t al
w in
w ork
y i
Ġ %
Ġs ay
at ter
Ġf oc
Ġf ru
Ġf act
ar ia
Ġb reak
as tern
Ġd i
Ġm ater
Ġm ark
Ġh ig
Ġre b
ĠA b
ĠS en
el s
iv al
ac es
ĠM c
ur ther
ĠB ro
ĠN ational
ĠW ee
ĠW hen
ĠL ong
Ġsh own
Ġsh ould
Ġv al
Ġr un
op s
Ġsu ff
ie f
Ġab ove
Ġreg ular
Ġbec ause
ĠIt al
ĠDe ce
Ġcent ury
fer red
oy al
Ġprodu ction
end ed
Ġwrit ten
Ġarm s
Ġremain ed
Ġbro ken
Ġpos s
Ġmov ed
Ġgener al
Ġsign ific
Ġrepresent ed
Ġann oun
Ġdam aged
Ġrelig ious
Ġaerodrom es
ÃŃn yi
ĠAustral ia
ĠHung arian
Ġsty le
ĠMich ael
ĠZr ÃŃnyi
a ugh
f or
k s
p s
r is
ã ģ
Ġ ed
Ġa ward
Ġa way
Ġa viation
Ġs old
at ic
Ġc ur
Ġc ivil
Ġf ew
en ces
Ġp ra
ro pe
Ġm ar
Ġm id
Ġm ix
Ġm other
Ġre n
le y
ent h
ĠA cc
ĠS quadron
Ġl ow
ĠC ent
ot t
Ġas pect
ĠP er
ĠP ort
ĠG ener
ĠG overn
ĠR ich
ĠE d
ag o
Ġpro cess
ian s
Ġex per
ĠHe aven
Ġ3 1
Ġ201 5
Ġne ver
ĠAl though
Ġbec ome
Ġfl ight
ĠAr senal
Ġev ent
Ġear l
ens ive
Ġwrit ing
Ġtra ining
ĠAust ro
Ġtrans port
Ġgu it
Ġfig ures
ĠInd ia
Ġtem ples
Ġactiv ities
Ġvi ol
ĠFl ower
Ġsim ilar
Ġlim ited
ĠRep ublic
fic ult
Ġmater ial
ĠDece mber
ĠGener al
c er
c hed
c ret
s el
t ic
t hes
re w
Ġs ide
Ġs chool
Ġs ilver
at s
Ġf av
Ġf ung
Ġp e
Ġp ie
Ġb all
Ġd r
ic ago
Ġto p
Ġm ed
Ġm ult
ent ial
om ing
am ent
ĠC AA
ot e
ot ed
ac re
Ġwith out
ut ed
ĠF e
ĠP ol
od ies
um ent
ĠG amb
ord s
Ġsh ort
Ġsh oot
Ġr ul
ĠCh icago
ide o
Ġint ro
Ġ199 8
Ġother s
Ġrel ations
Ġreleas e
Ġdesign ed
Ġac cept
Ġiss ue
Ġdif ficult
Ġspec ies
Ġstart ed
Ġpres ident
Ġem ploy
Ġlos s
Ġshr ine
ĠCarol ina
ĠEu rope
ĠLong acre
Ġannoun ced
. .
a ff
c ing
c ent
o ard
z her
z og
Ġ ill
Ġt reat
Ġw ater
Ġ. ..
it al
Ġc ru
Ġf ar
Ġf le
Ġf ace
Ġf ranch
Ġp ast
Ġp ick
Ġto o
Ġto tal
Ġm ask
Ġh ome
Ġre port
st it
Ġl ook
ĠC al
iv ers
ĠB ut
ĠH or
od y
um ents
Ġwh at
Ġse ct
ĠG oat
ĠG eor
ĠE le
est ed
Ġv is
ak en
Ġy oung
Ġ200 1
Ġ18 4
Ġte le
Ġsc ul
Ġup on
Ġform s
Ġform ed
Ġinclud ed
Ġcar ried
Ġind ic
Ġsur round
Ġimp ro
Ġdem on
Ġsign ed
Ġwin ning
ĠAm un
Ġsong s
Ġvar ious
Ġsuccess ful
Ġrelig ion
Ġinvol ved
ĠMe x
Ġstr ong
Ġestabl ished
ĠFair ies
Ġtro ops
ĠEr zher
ĠErzher zog
I I
a ut
e c
e h
l er
l ess
n al
p g
u k
Ġ Â
Ġt ri
Ġt yp
er y
Ġs un
Ġs ite
Ġs ize
it ive
it ted
Ġc m
Ġc oll
Ġf ail
Ġf urther
is od
an ts
al ed
Ġin ch
Ġin str
Ġm m
il ities
ĠS an
Ġn ight
Ġn ature
ĠC l
ĠC an
Ġe ither
ĠM et
ĠM ax
Ġde b
ĠP r
ver s
Ġse x
Ġse ven
av al
Ġan im
Ġcon n
Ġcon struction
ĠL ight
ĠL ond
ri f
ri end
ant ed
Ġr ange
Ġch ampions
ĠâĢ Ļ
Ġex t
ap p
ap er
Ġk ill
ition s
Ġplay ing
Ġar ch
Ġar senal
Ġ201 4
Ġim age
du ced
Ġdes pite
Ġ5 0
ough t
Ġus ing
ib ility
Ġdec ided
Ġfe et
Ġsub sequ
Ġele ments
Ġac ross
Ġday s
Ġpartic ip
Ġep isod
Ġterm s
Ġsol o
Ġcommun ity
Ġassass ination
ĠZap ata
Ġfoc us
Ġsignific ant
Ġfranch ise
ĠLond on
l ide
o id
p an
r ated
Ã ¡
Ġ er
Ġ ident
Ġt w
Ġa ction
re et
Ġs ister
Ġw all
at ters
or ts
Ġc our
Ġf elt
Ġf ederal
is ters
es tern
Ġp ubl
Ġin j
Ġin s
ing ton
Ġb us
as ed
Ġm a
Ġm ember
Ġh ow
Ġh ur
Ġh aving
Ġre ve
Ġre ached
Ġth ings
ĠA g
ĠA p
Ġl ic
Ġl aw
ĠM ar
Ġst e
Ġst ri
ĠP lay
ĠP enn
Ġcon du
em on
ri e
Ġpl ain
Ġpro p
Ġch ang
qu e
Ġrec og
Ġ200 3
Ġab s
Ġ199 4
ĠY ear
Ġthem e
ĠRe g
Ġ8 8
ĠSe cond
Ġdec l
Ġdep art
Ġbro ther
Ġoffic ial
Ġperform ance
Ġiss ued
Ġest im
Ġspec ific
Ġtem ple
Ġperson al
ĠII I
Ġappear ance
Ġbat tle
ograph y
Ġrequ ired
Ġgun s
Ġever y
Ġgre ater
Ġprim ary
Ġreag ents
Ġfict ional
rican e
Ġav ail
ĠAcc ording
Ġguit ar
ĠGamb ia
Ġhur ricane
Ġrecog n
c is
d le
g a
g er
k ed
l l
o ad
r ic
s yl
x ts
Ġ -
Ġ iron
on t
on es
Ġs oc
Ġs ky
Ġs itu
nd er
or ies
it es
Ġc he
Ġc red
Ġc amp
Ġc ase
Ġf ull
is l
ar ies
Ġp ain
Ġp ri
Ġp ress
Ġb orn
Ġm ag
ĠT o
Ġre volution
Ġ1 00
st er
om m
Ġn ar
Ġn ames
Ġl ost
Ġl ittle
ĠC o
iv id
ot ion
Ġfor ce
ig ence
ac y
id ence
ĠB r
ĠB at
Ġhe avy
se c
se y
ĠF er
Ġde v
ĠP res
ĠN e
ĠR iver
ers on
ĠE ar
Ġy lide
ĠSt ate
ff ic
Ġreg ul
Ġbas e
Ġgro und
use um
Ġfin ally
Ġfour th
Ġbu ild
Ġsur v
ren t
Ġbel ow
Ġhum ans
Ġdo or
ĠJohn son
Ġperform ed
Ġloc ated
Ġorigin ally
Ġcre ation
Ġcre ated
Ġsyn thes
ĠChar les
ĠCon f
Ġfeat ured
sp ace
Ġexp ress
Ġdam age
Ġappro ach
Ġreview s
Ġeff ect
Ġdet ail
Ġinst ead
Ġleg isl
Ġcreat or
ĠTe am
ĠAss ociation
Ġjoin ed
Ġhour s
ĠJu ly
ĠBu ilding
Ġcarbon aria
Ġaspect s
Ġearl ier
Ġmask ray
ĠEle ph
Ġscul pt
ĠPenn syl
Ġsoc ial
ĠPennsyl van
M S
c ient
d in
i ety
ã Ĥ
Ġ Q
er t
re am
re me
Ġw ind
Ġw ife
Ġc ut
Ġc up
Ġf re
Ġf riend
en cy
is es
Ġp ound
Ġp ract
as ter
Ġd ou
ro y
ro z
ro ph
Ġm or
Ġm aking
Ġh ill
Ġg ave
ĠA ward
ĠA viation
ĠS er
ĠS im
ĠS chool
ĠC A
ĠC are
ĠC ourt
im ately
Ġbe gin
ac ing
id ing
ĠB ook
ut es
ĠH ist
ĠG old
ch ol
ies t
if th
ist ics
ill a
Ġr ank
Ġex c
Ġex ist
Ġex pl
ĠSt e
ell igence
Ġ4 5
ock ey
Ġ199 0
Ġ199 5
Ġ199 6
Ġoff er
Ġcl os
Ġcl aim
lud ed
Ġad v
Ġres pect
ĠRe c
Ġwork ed
fer ence
Ġpr in
ĠOn e
Ġacc ording
Ġwrit er
Ġmet h
Ġind ivid
Ġmin or
Ġremain ing
Ġqu al
Ġdo es
omin ation
Ġgener ally
Ġhand s
Ġpur ch
ĠChar l
Ġhel p
Ġchild ren
Ġparticular ly
Ġes c
Ġplayoff s
Ġlarg er
ĠDar win
Ġfoot ball
Ġsomet imes
Ġindust ry
omb ard
ĠItal ian
sel ves
Ġpie ce
ĠHor us
Ġpubl ished
ĠFer din
ĠConf eder
ĠFerdin and
c hes
d ay
g round
m s
n ey
p ose
r ant
t les
ã ĥ
Ġ &
Ġ ru
Ġt aking
in ct
Ġs at
Ġs ac
Ġw ing
Ġw est
Ġw ide
Ġc a
Ġc lub
Ġf ire
Ġp an
al d
Ġin v
Ġd ict
ic ation
Ġto ur
Ġm ach
ĠT er
ĠT wo
Ġg et
ĠA wards
ĠS MS
el ess
Ġl ack
ĠC lub
Ġe y
Ġe ight
et t
ut ch
Ġal ways
ĠP al
ĠP eople
ra p
ra nd
um mer
Ġse arch
us h
Ġcon dition
ĠW ay
ĠW iz
ag ing
her n
os p
ate g
ĠO roz
ort hern
Ġch ap
Ġch ange
op h
Ġex cept
ap ed
ĠK ar
Ġnot ed
Ġ200 2
ell ow
ign ed
Ġro les
Ġair field
Ġ3 5
Ġinc hes
Ġte xts
Ġap pl
iz ation
Ġim ages
Ġsc ored
Ġ199 1
Ġ199 7
Ġj ud
Ġreg ion
Ġthem selves
Ġmost ly
Ġinter n
Ġsy mb
Ġpr ivate
Ġsup p
Ġso on
Ġmet res
ee p
Ġgo als
Ġapp oin
Ġmain tain
Ġqu ick
str ict
Ġent ran
Ġdisc over
Ġiss ues
Ġ186 1
ĠIs land
Ġbelie f
olog y
olog ical
Ġver y
Ġinflu ence
itu als
Ġcer tain
Ġprof ess
Ġpra ised
Ġexper i
Ġfung us
Ġshoot ing
Ġtele vision
ĠMex ico
Ġarch it
Ġma at
ĠEleph anta
ĠWiz ards
ĠOroz co
Ġsymb ol
a ctions
e pend
g es
m itted
o on
o le
s h
z e
Ġt ru
Ġt ied
Ġa ff
er ing
Ġw id
Ġw oman
it b
it ors
Ġc e
Ġc all
Ġp red
an c
Ġin form
Ġin sp
Ġb ass
Ġto wn
Ġm ale
Ġh ouse
Ġre ason
Ġre strict
Ġg l
il i
ĠS m
ĠS ociety
st anding
Ġl if
ĠC ab
Ġe mer
ir ing
Ġon ce
ow led
ĠM a
ĠM us
ĠB ob
et h
Ġst anding
Ġst aff
ul ts
Ġ2 7
Ġ2 8
Ġde ploy
um m
ĠG h
ĠG ar
ĠG all
ĠG reat
ĠR oman
us s
ĠE x
ĠE ach
Ġcom ment
Ġv ideo
ab ly
Ġr ituals
ip le
our nal
ĠK n
ĠCh ild
Ġar g
Ġar r
Ġair space
Ġ18 8
oun ter
Ġ199 3
erv ation
Ġcl ose
Ġseason s
Ġover all
Ġad apt
Ġnew ly
ĠDe f
Ġacc om
Ġoper ation
Ġno ise
Ġnum bers
Ġgo od
Ġco ach
Ġph ys
Ġ192 0
Ġconc ern
Ġshow s
Ġpur pos
ĠIs is
con om
Ġcomple x
Ġwe ap
Ġmajor ity
ĠFran cis
Ġresp ons
semb le
ĠPro ject
ĠDes pite
Ġattem pted
Ġcompet ition
Ġocc ur
Ġvoc als
Ġhig hest
Ġfav or
Ġill ust
Ġtreat y
Ġdemon str
Ġbus iness
Ġavail able
Ġarchit ect
ĠCab ral
F A
e enth
h a
n ance
p ir
u c
x is
Ã ©
Ġ X
Ġt re
Ġa ut
on ium
Ġs ociety
Ġw a
Ġw ent
Ġw ee
at t
or ation
or ial
it ch
Ġc as
Ġc apt
Ġf und
Ġf ight
Ġf ans
Ġf ifth
en ed
is f
Ġp pg
an e
an es
Ġd ro
Ġd ate
Ġd ied
ic rol
Ġto get
Ġm er
Ġm ight
Ġh on
Ġth reat
Ġg ive
ĠS u
ĠS up
ĠS erv
Ġn ation
ĠC ivil
Ġe conom
ow ers
id ge
ĠM il
ur b
ĠB et
ĠI m
Ġst ates
Ġst ep
ut ive
Ġ2 2
ĠF ollow
ĠP atters
ĠN ash
ĠG l
ĠR oyal
ĠD ah
em ents
ĠE astern
ĠW ill
ĠW est
ĠL ater
ord er
pe cial
Ġpl aced
ist r
ĠO s
Ġv ict
ant i
ab ility
Ġle ast
Ġk ing
Ġk ings
Ġk ind
Ġk eep
Ġ200 4
ell ed
Ġun it
Ġair ports
Ġ18 9
Ġcont r
ree k
Ġ199 2
Ġdis play
Ġad d
Ġne g
Ġne cess
Ġrecord ing
Ġfl ights
ĠAr t
rough t
Ġform ation
Ġsp ot
Ġcent er
ĠAn other
Ġdec ision
Ġacc ess
Ġme an
Ġsecond s
Ġpol y
Ġsub ject
Ġbro ad
Ġpos itive
Ġown er
Ġent ire
ob e
Ġserv ed
Ġbl ack
Ġgu ard
Ġcre w
Ġthough t
ĠCro yd
ĠAmer ica
Ġport ico
Ġgiv ing
Ġbat tles
Ġmod ern
Ġvi ew
Ġturn ed
Ġallow ed
Ġprov ided
Ġdepict ed
Ġtradition al
Ġinit ially
Ġdest roy
ĠMan y
Ġopp os
Ġgrow th
med i
ĠCroat ia
Ġsold iers
Ġevent ually
ĠFe ast
Ġfle et
Ġreport ed
Ġsect or
Ġ184 9
Ġdeb ut
Ġsex ual
Ġchampions hip
Ġsubsequ ently
Ġcondu cted
Ġdou ble
ĠCA T
ĠCare y
Ġbegin ning
Ġintern ational
Ġprofess ional
Ġpurpos es
Ġtoget her
ĠFollow ing
ĠPatters on
ĠCroyd on
a e
b y
g o
g r
g ram
h an
h aw
i am
k a
l ock
o res
r ack
s ky
y r
Ġ ult
Ġ rif
Ġt est
re c
Ġs w
Ġs ou
Ġs ket
Ġs chol
Ġo p
Ġo ur
Ġw anted
it te
Ġc and
Ġc ourt
Ġf ix
Ġf ield
is ing
ar ily
Ġp en
al y
ing al
ing ly
Ġb rought
Ġto ld
Ġm i
Ġm ount
Ġh or
Ġh air
ĠT ype
le t
Ġg en
ĠS l
ĠS ur
ĠS un
ĠS av
om es
am a
Ġn on
Ġn aval
Ġl ower
ĠC ore
Ġe lect
iv ity
ĠM em
ĠM ag
ur ch
ur ti
ĠB as
Ġst ation
Ġst reak
ul ly
ĠF irst
ĠP ilot
ĠP eng
ce ed
ĠJ ap
ĠN am
um n
Ġse lected
Ġse par
ĠG ot
ĠG od
us sion
ch n
ĠE AS
ain s
Ġpro ble
Ġpro gress
Ġor b
ĠO ther
Ġex amp
Ġex tend
Ġy ou
ther n
Ġ200 5
Ġro ad
Ġwho le
Ġ18 0
Ġ18 7
Ġ4 0
ous ly
Ġab le
Ġits elf
Ġ199 9
Ġen v
Ġcl osed
Ġman ag
ry ing
Ġbec oming
Ġfl oor
ĠAr my
Ġfin d
Ġfin ish
Ġfin ished
Ġact ing
Ġcons ist
Ġcons isted
ĠSe vent
Ġob ject
ific ation
Ġarm ed
az ine
Ġ198 8
Ġmov e
Ġhigh ly
Ġplan ning
Ġplan ned
Ġele ctions
Ġdef e
Ġ186 2
Ġra re
ĠInd ian
Ġalong side
Ġgroup s
ĠLe ague
Ġfeat ures
Ġver sion
Ġstat ute
Ġprom in
Ġmod el
ĠComm and
Ġnear ly
Ġeff ort
Ġdet erm
Ġmiss ing
Ġinflu enced
Ġgreat est
Ġcer emon
Ġaerodrom e
van ced
Ġes pecial
Ġsl ow
Ġestabl ish
Ġopen ing
Ġattem pt
ĠEm my
Ġinit ial
Ġfore ign
ĠChrist ian
Ġhistor ical
Ġphot ograph
Ġsuff ered
ĠGovern or
Ġintro duced
Ġaccept ed
ĠEurope an
Ġtyp es
ĠLight ning
Ġepisod e
Ġprop osed
Ġestim ated
Ġsculpt ure
ĠPennsylvan ia
ĠHist ory
ĠPal in
Ġairfield s
Ġquick ly
Ġentran ce
Ġphys ical
itte e
Ġcand id
ĠPeng u
ĠEAS A
Ġexamp le
Ġespecial ly
a ired
b reak
c om
d en
g ia
k ing
k ov
m i
m ost
m ates
o om
p ts
r ill
t he
t ation
he l
Ġa ge
in ity
on se
Ġs on
Ġs ound
ed ic
Ġc le
Ġc ross
Ġc ounter
Ġp air
Ġb ody
Ġd one
Ġd read
ic ts
Ġto wards
Ġm ust
Ġm ass
Ġth us
ĠA f
ĠA er
ĠS ince
ĠS yn
st ed
st ant
el es
Ġn ine
Ġl anding
Ġl ives
Ġl atter
ir is
Ġon es
ot te
Ġas ked
ĠM on
ĠM ed
ĠM ac
ĠM ajor
ur der
ay kov
ĠI ts
Ġst age
Ġ2 6
Ġal most
Ġde ad
ĠH ar
ĠH ow
ĠH all
ĠH igh
ĠH orn
ĠN orthern
un ity
ĠG erm
ĠR av
Ġ19 0
ĠD av
ĠD utch
ĠE ast
ĠW e
ĠW estern
Ġcom e
Ġpro hib
os s
if est
ill s
ill ance
Ġch o
qu are
Ġex pect
Ġle t
ĠSt reet
Ġrec re
ĠCh aykov
Ġwor st
ell ing
Ġun s
Ġun its
Ġro om
Ġwho se
Ġsc ope
Ġ5 00
Ġag re
are n
Ġcomm ission
Ġpre p
Ġpre vent
Ġus es
Ġteam s
Ġrel ated
Ġev idence
Ġwork s
Ġwork ing
Ġret ired
Ġsp ent
ick s
ĠAn g
rib uted
Ġear th
Ġdep icts
Ġme as
Ġme et
eb all
ve illance
Ġdesign ated
Ġfollow ed
Ġsa w
Ġown ed
Ġ198 6
Ġph ara
Ġ192 3
Ġ192 9
Ġserv ice
Ġ191 1
ĠAm end
Ġcrit ics
Ġconc luded
ĠEn ter
Ġpur pose
Ġdist inct
ĠCon ference
Ġsupport ed
ann ah
ĠCar ter
Ġprot ect
Ġmiss ions
Ġobserv atory
Ġcontrol led
Ġstud y
Ġresp onse
Ġfac ilities
Ġcommand er
Ġgoddess es
Ġgr ad
Ġ196 1
Ġcomb ined
Ġlab or
Ġlab el
Ġtit le
Ġpat tern
Ġcur rent
Ġmix ed
Ġsurround ing
Ġconn ected
rie f
Ġcred ited
ĠEar ly
ĠRec ords
ĠCharl otte
ĠConfeder ate
Ġdict ator
ĠKar l
epend ent
itb odies
ournal ists
ĠOs iris
ĠSav annah
ĠCore y
ĠNam eless
ĠSevent eenth
ĠPengu ins
ĠChaykov sky
a ign
b es
d ate
f act
h m
k an
l a
m in
t ies
u ck
v al
w orth
Å ¡
Ġ ess
Ġt er
Ġt or
Ġt en
Ġa ctions
or ian
Ġc ast
Ġf ly
Ġf ully
is on
is ions
ar ing
Ġp aper
al ity
Ġb urn
Ġb ox
Ġd ies
Ġto uring
ro t
Ġm ot
Ġm icrol
ĠT im
ĠT em
ĠT imes
le b
Ġg ir
ĠA ten
il ing
ĠS ri
ĠS pr
Ġl ay
Ġl iter
Ġl yr
ĠC ong
ĠC apt
ot s
ot he
ot ential
im ent
im um
im ate
Ġas semb
id ents
ĠM useum
ĠB C
ĠB i
ĠB ost
et work
Ġhe av
Ġst op
Ġst orm
ĠF red
ĠF lying
ĠF ingal
ĠP o
ĠP ost
ĠP layer
ĠH ol
ĠH ockey
ra in
ĠJ e
ĠN ight
un k
Ġse ated
ĠR el
us ion
Ġcon sec
ĠD ou
ĠD iv
ĠD em
ĠD irect
th ur
ĠW ash
ĠL ank
Ġpl ans
Ġpro per
if y
Ġsh if
Ġsh aped
ĠO b
ant ic
ab it
ard ed
Ġr iding
Ġle aving
ap h
ĠK ings
ĠV ai
Ġk e
ell s
rit ory
Ġ3 8
wo od
oun ts
Ġab ility
Ġint ended
Ġoff ice
Ġcl ock
Ġj ew
ress ion
ĠTh at
ĠTh om
ire ment
Ġbas ic
Ġspe ed
Ġspe ct
Ġfl ank
Ġ6 0
ĠUn ivers
Ġrel ief
Ġ8 6
ose lect
Ġass ists
Ġcar ved
ĠAn con
ĠNB C
Ġdiv er
Ġam b
Ġdep rec
Ġme ans
pp ed
Ġmin t
oci ated
Ġmov ement
ĠAll ied
Ġoffic er
Ġsmall er
Ġac qu
Ġdef ense
Ġrepresent ative
Ġ191 8
ĠAir craft
Ġcrit ical
Ġstru gg
Ġcontin ue
Ġcol le
Ġproject s
Ġcomple ted
Ġactiv ity
ĠAd dition
Ġeng ine
iver se
Ġaddition al
Ġobserv ed
Ġobserv ations
Ġcirc ul
Ġhold s
ĠSc ott
Ġgre w
Ġpar ts
Ġincreas ed
Ġref lect
Ġequ ip
Ġstud io
Ġlos ing
Ġresult ed
Ġaver aged
Ġla un
iron ment
Ġden omination
ĠAnd rew
Ġstand ards
ĠUp date
Ġsay s
Ġmid dle
ĠCent er
ĠPort ug
Ġrelations hip
Ġinstr uments
ĠSan ford
ĠPr ivate
Ġext reme
Ġparticip ated
Ġinj ury
Ġreve aled
ĠAg ust
Ġlic ens
Ġpri or
ĠPres ident
ĠSte ve
Ġappoin ted
Ġtru e
owled ge
ĠFrancis co
Ġenv ironment
Ġdread n
ĠDav id
ĠEnter tain
ĠCong ress
ĠWash ington
ĠAncon a
1 8
2 2
K ay
a f
g ment
h am
i Ä
i us
i que
l ish
n u
p ic
p ire
s ive
t is
x imately
y al
y xis
Ġ Ã
Ġt ort
he re
Ġa im
in ition
in du
in for
in sey
er ous
er ry
er ick
on y
Ġs an
Ġs quadron
Ġs isters
Ġo x
Ġo il
Ġw ear
at ican
or f
it able
it ting
Ġc at
Ġc ause
Ġf ill
Ġf ired
Ġf ellow
Ġp oor
al th
Ġb en
Ġb ir
Ġb ene
Ġb ombard
Ġb rief
Ġd w
Ġd on
ic op
Ġm urder
Ġh ard
ĠT V
ĠT or
ĠT ur
Ġre ad
Ġre ferred
Ġre infor
le g
le nd
ou is
Ġth ink
ĠS p
ĠS ar
ĠS am
ĠS et
am ples
Ġl ot
Ġl ink
ĠC u
ĠC or
ĠC up
ot es
Ġfor ced
im in
im urti
ĠM or
ĠM al
ĠM id
ĠM ason
ĠM umb
ur re
Ġwith d
ay s
ĠB ab
Ġst ating
Ġde ep
ĠP ra
ĠP ri
ĠP lan
ĠP ope
ĠH indu
um ed
Ġwh om
Ġse lect
ĠG ir
ĠG eop
ĠR am
ĠR ober
Ġan ch
Ġan cient
Ġcon ce
ĠD u
ĠD or
ĠD un
th rop
em ed
em an
ers hip
ĠW al
ĠW ood
and ed
ĠL ic
ĠL ive
ĠL ouis
ri an
Ġcom pl
Ġpl aces
oc al
os m
ĠO t
ĠO ut
ĠO per
ĠO ffic
Ġr ad
Ġr um
Ġch a
Ġch ance
qu el
Ġex hib
Ġex ec
Ġher self
Ġy lid
ĠV atican
ov ed
og rap
ast ic
Ġper man
Ġun l
Ġun con
Ġro ute
Ġ3 3
Ġte nd
Ġte chn
ph ant
Ġint elligence
Ġen em
Ġen anti
Ġgame play
Ġoff ered
Ġman ifest
Ġup per
Ġreg ulation
Ġover t
Ġad vanced
ĠRe ign
Ġbas eball
Ġact ive
Ġact ress
ĠDe p
ĠZ ilt
Ġsp ir
Ġinter view
Ġfe el
Ġwrit e
Ġsur re
Ġarm y
Ġmin utes
ism o
Ġmon itors
Ġremain s
Ġsa f
Ġback ground
Ġmus ical
Ġ198 5
Ġ198 7
Ġplan et
Ġele ction
Ġele phant
Ġimp act
Ġdem ons
Ġserv ices
Ġstru ct
Ġstart ing
ues e
Ġvar iety
vent ion
Ġfeat ure
Ġappear ances
ĠFI FA
Ġeng aged
cl ad
Ġhold ing
Ġep ox
Ġhel icop
Ġinvol ving
Ġbeh av
ĠFran k
Ġdirect or
Ġref used
Ġallow ing
Ġaver aging
Ġlarg ely
Ġattend ed
Ġord nance
Ġcap able
ĠTr insey
ĠTr imurti
Ġmyth s
Ġfun ction
Ġglid ers
Ġide as
ĠGre g
ĠGre en
ĠEng land
ĠEng lish
ĠAct ress
Ġvoc al
Ġsugg est
ĠMc Kay
Ġval ue
Ġposs ible
augh t
Ġaward ed
ĠEd m
Ġpe ace
Ġmult iple
ĠGeor gia
Ġcoll ab
Ġkill ed
ĠAp pe
Ġiron clad
Ġsitu ation
Ġcamp aign
ĠBat tle
Ġsynthes is
Ġdetail s
ĠQ ue
Ġmor ning
Ġindivid ual
Ġsac red
Ġpan el
Ġchap el
ĠSm ith
Ġemer ged
ĠMus ic
Ġarr ived
ĠServ ice
Ġeconom ic
ĠBet ween
ĠDah l
Ġnecess ary
Ġfix ed
Ġmanag ement
ĠGerm an
ĠRav ana
Ġphara oh
Ġlyr ics
ĠCapt ain
ĠFred erick
Ġconsec utive
ĠDou g
ĠDirect or
Ġke pt
ĠUnivers ity
Ġlaun ched
ĠPortug uese
Ġbir th
ĠTur k
ĠMumb ai
ĠGeop yxis
ĠZilt oid
A R
A r
S tation
a ul
c ri
c ock
c ious
c hest
f all
h ing
h old
h ood
h aps
k i
n a
o ch
p ond
u fact
v ey
v ara
w are
Ã ³
Ġt al
Ġt arg
Ġt ax
Ġt ype
he ad
in y
in ations
on ents
Ġs quare
at ur
at ural
at ives
or ated
or por
Ġc ost
Ġc ited
Ġc ateg
Ġc osm
ing a
ing u
Ġb i
Ġb ank
as y
Ġd oc
Ġd ark
Ġd ata
Ġd augh
ic ide
Ġm ention
Ġm akes
Ġh ar
Ġh all
Ġh op
Ġh ang
Ġh ier
ĠT ot
ĠT od
Ġre d
Ġre ver
le ts
st ron
Ġl oyal
ad h
ad es
Ġe ag
Ġe mb
Ġe astern
ir ation
ir ty
ly m
ly wood
ac les
ĠM in
ĠM er
ĠM ore
ĠM ary
ĠM iss
ĠB h
ĠB and
ĠB ill
ĠB ah
et ed
ut en
Ġ2 9
ĠF our
ĠP it
ĠP ac
ĠP ublic
ce nd
ĠH en
ĠR ed
Ġat h
ĠD r
ĠD raft
ĠD istr
ch t
ch an
th ing
ĠW ork
ĠW omen
ĠL a
ain ing
res pond
ri al
ri age
if ul
if ying
ate ur
igh ter
Ġare as
ĠIn f
ĠIn tern
ĠO ld
ĠO lym
ru ption
Ġv ia
ĠU nder
Ġex cl
ĠK ail
ĠSt ation
ĠV ish
ĠV illa
Ġk g
Ġrec on
ie uten
du ction
ict ure
Ġen ough
Ġdis order
Ġman aged
Ġman ufact
Ġreg ister
Ġcomp an
Ġcomp osed
lud es
Ġad o
Ġres c
Ġbec omes
Ġthem ed
Ġthem es
Ġcomm ittee
Ġus ually
Ġnew s
Ġnew sp
ud a
ib r
ke nd
Ġinclud es
Ġact s
Ġ7 5
Ġ7 6
Ġ8 0
Ġret irement
Ġinter p
Ġinter est
rib ution
Ġatt ention
Ġ9 4
Ġacc ount
Ġdiv in
Ġam ateur
Ġend ed
Ġob tain
Ġind ependent
Ġsur veillance
Ġgo ing
Ġarm or
Ġco ast
Ġmon ey
Ġsub str
Ġtra vel
Ġ198 4
Ġthere fore
Ġqu ar
Ġtrans fer
Ġtrans ferred
Ġrepresent ing
Ġperform ing
Ġmem ory
ĠBl ood
Ġra in
Ġra ised
tend er
Ġaer ial
Ġstar red
Ġann ular
reas ury
Ġpres ence
Ġcharacter istics
Ġ194 2
Ġdist ingu
ĠChar act
Ġconsid er
Ġappro ximately
Ġcomple t
Ġprot ests
ĠComm unity
Ġ193 0
ĠFor ce
Ġinflu ences
ĠGu ard
Ġturn s
ask a
Ġincreas e
Ġincreas ingly
Ġpass ed
Ġdepict ing
Ġopen ed
ĠEm pire
Ġassass ins
Ġcor respond
Ġcap ital
Ġreag ent
Ġglid er
Ġglid ing
Ġcal iber
Ġhost ed
Ġgoal tender
iber ty
Ġsulf ur
Ġpat ron
Ġdra w
ĠBar ra
Ġsugg ested
Ġblock ade
Ġsay ing
Ġfru itbodies
Ġmark ed
Ġhig her
ĠWee kend
ãģ ®
ĠGovern ment
Ġmed ia
ĠPol ice
Ġindic ated
Ġimpro v
eh ler
Ġfail ed
Ġinstr ument
Ġcour se
ĠPlay Station
Ġabs ence
Ġmag azine
Ġnar r
Ġlegisl ation
Ġfriend s
ĠGold en
Ġoffer ings
Ġrespect ively
Ġprin c
Ġpurch ased
Ġru le
ĠTer ritory
Ġget ting
Ġappl ied
Ġinform ation
ĠKn icks
ĠChild ren
Ġaccom pan
Ġweap ons
Ġillust r
ĠWill iam
Ġadd ed
Ġmean ing
Ġbattles hips
Ġdestroy ed
Ġoppos ite
Ġrif les
Ġsket ch
ĠMag ic
ĠBas ketball
Ġproble ms
Ġconsist ing
Ġpromin ent
Ġcandid ate
ĠMac Ar
Ġrecre ational
aren t
Ġess ential
Ġgir l
ĠSpr ing
Ġassemb led
ĠBost on
ĠPo ehler
ĠJe ff
Ġflank ed
Ġbombard ment
ĠRober t
Ġrum ors
Ġcha os
Ġperman ent
stron om
ĠDistr ict
Ġexcl us
ĠKail ash
ĠVish nu
ĠMacAr thur
a way
b ed
b ur
c ause
f ael
g art
g ree
g ments
h ist
i ud
j oy
l as
l av
m ar
m un
m ond
n y
n el
n all
o f
p read
r id
s c
s pect
u el
u als
u able
v ation
w ide
y c
Ġ ut
Ĩ st
Ġt aken
he tic
Ġa ch
in et
er ate
re l
re z
re ck
Ġs quad
Ġs ense
Ġs ites
Ġw ord
Ġw ides
at ively
it a
it iz
it age
Ġc ro
Ġc am
Ġc res
Ġc art
Ġf ut
Ġf est
Ġf air
is ation
ar ap
Ġp a
Ġp ay
Ġp ist
Ġp leas
Ġb a
Ġb ad
Ġb ill
Ġd ut
Ġd ail
Ġd ram
Ġd edic
ro g
Ġm el
Ġm om
Ġm ax
Ġh ap
ĠT ar
ĠT ra
Ġre form
Ġre fer
Ġre vers
Ġre actions
ou ra
Ġg ar
ĠA c
il ized
ĠS al
ĠS ch
st a
om er
Ġn omin
Ġn etwork
Ġl o
ĠC ave
ĠC iud
ad d
ad ing
ir m
ir al
ol ic
ol ition
iv en
ot hes
Ġfor ward
Ġbe ings
Ġbe aut
ĠM at
ĠM ach
ur i
ur ies
ĠB al
ĠB ra
ĠB ud
ĠI f
Ġhe ight
ut ional
ul es
ĠF rom
Ġde pend
Ġde gree
ĠP ress
ĠP eter
ĠP erson
ĠP ett
ce an
ĠH un
ĠH um
ĠH art
ĠH ath
ĠH ouse
ĠH itch
ĠN ot
um p
Ġse a
Ġse c
Ġse cret
ĠG o
ĠR od
ĠR ick
Ġan g
us hed
Ġcon stru
Ġcon ne
ĠD ream
ĠW rit
and atory
ĠL os
ĠL inga
ĠL iberty
Ġcom es
Ġcom eb
Ġpl ot
Ġpro c
Ġpro gram
if orm
Ġsh ore
ĠIn t
est y
Ġv an
Ġv ice
ant he
Ġr ate
Ġr ather
Ġch all
Ġch ose
art ment
Ġle ar
ong ed
Ġy our
ĠK im
ight ly
ĠV en
ĠV ar
ĠV ict
Ġnot es
Ġnot ing
oin t
Ġrec ently
Ġrec omm
Ġ200 0
ĠHe ad
Ġun us
Ġun ique
Ġ3 2
Ġ3 6
Ġ3 00
Ġinc orpor
Ġ4 1
Ġ4 7
ous and
Ġdis p
Ġ5 2
Ġ5 3
Ġ5 4
Ġ5 6
Ġag gress
Ġshe ll
Ġj ournalists
ress ed
Ġreg ional
Ġcomp os
ĠY og
Ġrecord s
Ġfl int
Ġpre ced
oth y
ĠAr ch
Ġrep aired
Ġ7 1
Ġ7 9
Ġcons pir
Ġsp read
ĠSe a
Ġchar ge
Ġunder t
ning ton
Ġass ociation
Ġass igned
Ġass umed
Ġcar ving
Ġcar go
rib ute
Ġsup er
Ġprodu cing
Ġ9 2
Ġ9 6
Ġam ount
Ġam mun
Ġme ant
Ġend s
Ġsur f
Ġcan cer
Ġapp arent
az z
Ġmin ts
Ġmain ly
Ġwhere as
ren g
Ġremain der
ĠCom edy
Ġlead er
Ġent er
Ġdisc uss
Ġgener ation
ĠBull och
Ġdef inition
Ġdem and
Ġserv e
Ġserv ing
Ġreturn ing
Ġ191 5
cept ion
ĠBe cause
Ġstar s
aw a
Ġpres erv
Ġgiv es
Ġtrad ed
Ġband s
Ġmil es
Ġcol lect
Ġcol lected
Ġcol umn
Ġsupport ing
Ġver s
Ġstat ues
Ġcirc um
Ġcirc ulation
Ġhel ped
Ġway s
Ġresp ond
Ġpost ed
Ġpass eng
Ġprov ide
Ġprim arily
Ġcreat ing
ĠFair y
ĠAustral ian
Ġaver age
Ġdel iver
Ġauthor ity
Ġauthor ities
Ġord ered
Ġbr ut
ĠRa fael
Ġcomb inations
Ġperiod s
Ġneed ed
ym n
Ġsk ills
Ġ185 3
Ġphot ograp
Ġide a
Ġtit les
Ġsomet hing
Ġwill ing
Ġrepl aced
Ġ197 0
ĠCroat ian
Ġreb ound
ival ent
ĠWee k
Ġed uc
Ġmar riage
Ġren ew
ĠCent ral
ĠRich ard
ĠRich mond
Ġdr um
Ġrelations hips
Ġdifficult y
Ġemploy ed
Ġcru is
stit utional
Ġsurround ed
II I
aut la
ĠÂ £
ĠCan ad
Ġanim al
Ã¡ rez
Ġchang es
Ġexpress ed
Ġpract ices
Ġmeth od
Ġmach ismo
Ġey es
Ġcondition s
Ġbelief s
Ġexperi enced
Ġce leb
ĠGall ian
Ġadapt ed
Ġoccur red
Ġwee ks
Ġfund ament
Ġfight ing
anes e
Ġcontr ast
medi ate
Ġsou thern
Ġschol ars
ceed ed
Ġsepar ate
Ġextend ed
Ġdefe ated
Ġrare ly
Ġcle ar
ĠHow son
ĠAng eles
ĠAmend ment
worth iness
Å¡ ka
ĠAten ism
ĠOb serv
Ġjew el
Ġdiver se
ĠAddition ally
Ġequip ment
ĠÃ Ĩst
ĠCu autla
ĠPra Å¡ka
ĠGir ls
ĠDor othy
ĠDun nington
ĠLic ence
Ġylid es
ĠGreg orian
Ġcollab oration
ĠTot ten
ĠIntern ational
ieuten ant
Ġregister ed
Ġdivin ities
Ġach ie
Ġwides pread
Ġdail y
Ġmax imum
Ġhap pen
ĠCiud ad
ĠHath or
ĠHitch cock
Ġcomeb ack
Ġammun ition
ĠÃĨst hetic
C O
b ably
c ats
c ussion
c hel
e g
f ort
f ire
i en
k in
l in
l ight
l ines
l ls
l aim
m en
o il
p ing
r ies
r aska
t ra
t ah
w ing
w ick
y ch
y cl
¹ ¯
Å į
á ¹¯
Ġ ic
Ġt ide
Ġt ons
Ġt one
Ġt akes
Ġa z
Ġa ud
er ated
er gart
on ed
on om
on ym
on kan
re a
re st
Ġs al
Ġs ort
Ġs ummer
Ġs oph
Ġw eb
Ġw reck
at en
it he
it an
it ated
Ġc ou
Ġc ards
Ġc aught
Ġc itiz
Ġf r
Ġf at
Ġf al
Ġf ra
Ġf all
Ġf ear
en es
Ġp ark
Ġp otential
Ġp anthe
al ys
Ġin h
Ġin n
Ġb on
Ġb ar
Ġb ring
Ġb ranch
Ġb ott
Ġb odies
as c
Ġd ated
Ġd omin
ic ing
ro ad
ro up
Ġm un
Ġm ph
Ġm outh
Ġm useum
Ġm umm
ĠT ri
ĠT roph
ĠT att
ĠT reasury
Ġre se
le ction
ou d
Ġth rill
Ġth irty
Ġg ather
st ead
am il
Ġn orm
Ġl it
Ġl ang
ĠC O
ĠC rit
ĠC reek
ad em
ad way
ir t
ir id
ĠThe ir
ot ional
id ance
ĠM all
ĠM oth
ĠM andatory
ay ed
ay ing
ĠB ay
ĠB est
et te
ĠI HL
Ġst ra
Ġst ore
Ġst reet
Ġst reng
ut iny
Ġal tern
ter y
ĠF ilm
ĠP l
ĠP rom
ĠP ist
ĠP ip
ĠP orf
ver al
ĠH a
ĠH ann
ra ver
ĠJ up
ĠJ azz
ĠN eb
Ġwh ite
Ġse at
Ġse vent
ĠG ard
ĠG reek
ĠR ad
Ġan ime
Ġan ti
Ġan ger
Ġcon ver
ĠD en
ĠD is
em ark
ĠE l
ĠW ing
ĠW ind
ĠW ales
ag u
ĠL im
ĠL ombard
ain e
res ents
Ġcom ing
oc r
Ġpro ved
Ġpro pos
igh ters
Ġor n
ĠO ff
Ġv o
Ġv ol
Ġv ess
Ġv oted
Ġch am
Ġch ann
Ġch urch
qu ar
ĠU N
Ġex ten
Ġex amples
ap es
Ġy et
ĠK ate
ĠK han
ĠK onkan
ĠV ideo
Ġk ey
Ġrec all
ĠCh ief
ell er
Ġper m
Ġper for
Ġper mitted
Ġper cussion
Ġun p
Ġun iform
Ġro yal
Ġair ship
ect or
Ġ4 8
Ġ4 00
iz ations
Ġsc r
Ġsc hed
Ġsc ale
ok e
ok ed
ish vara
Ġwhe ther
act ed
Ġen c
Ġen s
Ġen semble
Ġdis m
Ġdis app
Ġ5 1
Ġag round
te en
te enth
ĠTh ough
reat h
Ġne ck
Ġres ults
Ġout break
Ġbas is
ĠSh a
ĠSh ort
Ġspe nd
Ġrem ember
Ġrem oved
Ġteam mates
Ġ6 2
Ġ6 4
Ġgro ss
ĠUn l
Ġfin an
Ġform al
Ġrep resents
ĠSe cret
ĠSe veral
Ġunder st
Ġinter se
Ġinter action
Ġcent uries
Ġpr ies
ĠAn ton
Ġsup pl
Ġsup por
Ġdec isions
Ġprodu ct
Ġprodu ce
ĠNew sted
Ġdiv ided
Ġkn ow
Ġso le
Ġend ing
one ga
Ġbet aine
ash tra
Ġsub stit
aj a
Ġbro ke
orn s
Ġtra in
Ġtra ffic
Ġpers pect
Ġent ered
Ġ192 1
Ġ192 5
Ġdem o
Ġgu est
Ġgu idance
Ġmem orial
Ġloc ation
Ġ186 3
ĠBe au
Ġfilm s
Ġmusic ian
Ġcontin ues
stru ct
co pe
ped o
ped ition
Ġport ray
Ġ194 0
Ġ194 1
Ġ194 3
ĠWar ne
Ġtrad emark
Ġfound ed
Ġgovern or
Ġstat ue
Ġimport ance
Ġmod erate
Ġreal m
ĠAd ri
Ġprot est
Ġeng ines
Ġ193 7
Ġmiss ed
Ġrequ ire
Ġinst ance
Ġep ithe
ĠGu ild
Ġsix th
Ġcer t
Ġequ ivalent
Ġstr ict
ĠOr igin
Ġprevious ly
ĠHer itage
Ġorgan ization
Ġmonth s
Ġattack s
Ġlevel s
Ġsk in
Ġocc as
Ġfun er
yn astic
ĠJu Ã¡rez
Ġ195 0
Ġtrack s
lan e
Ġindust rial
Ġsulf onium
Ġold er
Ġdra wn
Ġsee ing
Ġfact ors
Ġdi am
ĠWee haw
Ġval id
Ġposs ess
ĠMichael s
Ġmar ried
Ġschool s
ĠPol a
Ġshort ly
Ġrul ed
Ġlook ing
ĠGeor ge
eh yd
ĠMet al
Ġconn ect
Ġtw ent
Ġtw ice
ĠMar io
Ġste als
Ġstri ke
Ġchang ed
Ġdecl ined
Ġofficial s
Ġche m
Ġpain t
omm ission
Ġnar row
Ġbuild ings
Ġsurv ey
Ġfre qu
ĠSer ies
Ġrank ed
Ġexist ence
Ġclos ely
Ġpurch ase
Ġesc ape
Ġsat isf
Ġca used
Ġey e
Ġsupp ly
Ġmaintain ed
Ġdiscover y
Ġdiscover ed
Ġwid ely
Ġcall ing
Ġinsp iration
Ġgl ass
ĠMa ury
ĠBob cats
ĠGh ost
ĠGar uda
Ġcomment ed
Ġarg ued
Ġ188 9
ĠDef ensive
Ġfavor ite
Ġdemonstr ated
Ġarchitect ure
Ġtre es
Ġcas es
Ġcas em
Ġcapt ured
ĠSu icide
ĠMil itary
Ġstep s
Ġvict ory
Ġkind ergart
Ġult imately
Ġelect or
ĠJap anese
ĠGod s
Ġobject s
Ġceremon y
ĠHorn ets
Ġlet ter
Ġagre ed
Ġcommission ed
Ġprep ared
Ġmeas ure
Ġgrad u
Ġtor pedo
Ġmicrol ights
ĠTim or
ĠDiv ision
ĠLank a
ĠThom as
oselect ive
ĠAgust ÃŃn
Ġdreadn ought
iÄ ĩ
Ġsan ct
Ġbrief ly
Ġreinfor ce
ĠMid dle
ĠOut standing
ĠOper ations
ĠOffic er
ĠDep artment
Ġepox ides
Ġbehav i
ĠEdm und
ĠQue en
ĠDahl onega
ĠDoug las
Ã³ n
Ġdoc ument
Ġmention ed
Ġeag le
ĠPac ific
Ġado pted
ibr ary
Ġinterp re
Ġdistingu ished
Ġcomplet ely
ĠGuard ian
Ġcorrespond ing
Ġnarr ative
Ġcro wn
Ġcres cent
Ġdram a
Ġrevers ibility
ĠPett it
ĠHart ford
Ġconstru cted
ĠInt elligence
Ġunus ual
Ġflint lock
Ġconspir ators
Ġeduc ation
Ġfundament al
Ġic on
ĠTroph y
ĠTatt nall
Ġthrill er
Ġlang u
ĠMall ory
ĠPist ons
ĠPorf ir
ĠHann eman
ĠNeb raska
Ġperfor mer
ĠWeehaw ken
Ġkindergart en
E S
V D
a ult
b e
b our
b oard
d ress
e x
e cess
f ect
g ing
h i
h ak
i h
i et
i ew
i ence
k hen
m a
m n
m osp
n es
o o
o en
o oth
p et
p ri
p ass
r ick
r arian
s et
s ite
s ki
t o
u it
u ff
v y
v il
w a
w al
w atch
y a
z a
± ol
Ã ±ol
Ġ !
Ġ rom
Ġ urb
Ġt un
Ġt ail
Ġt ried
Ġt ask
he red
Ġa wards
in o
in ery
er sey
re y
re en
Ġs itting
Ġw ant
Ġw ood
Ġw ords
Ġw estern
at o
at in
or ter
it z
it or
it ation
it ively
it watch
Ġc ust
Ġc ults
Ġf it
Ġf an
Ġf res
Ġf lu
is hes
es ters
ar th
ar ry
Ġp un
Ġp ill
Ġp hen
Ġp icture
Ġin ner
Ġb ow
Ġb ip
Ġb lu
Ġb ull
Ġb oat
Ġb illion
Ġb oard
Ġb ought
Ġb lend
Ġd im
Ġd ire
ic ate
Ġm at
Ġm is
Ġm ess
Ġm atch
Ġm atter
Ġm aster
Ġh it
Ġh ous
ĠT re
ĠT om
Ġre nd
Ġre pe
Ġre du
Ġre ader
Ġre semb
Ġre duced
ou ver
Ġth in
Ġth ing
Ġth row
Ġth ousand
Ġg ot
Ġg rand
ĠA le
ĠA rea
ĠS w
ĠS ou
ĠS pe
ĠS ab
ĠS ak
ĠS ound
ĠS yd
ĠS atur
st ances
Ġn av
Ġn one
Ġn omination
Ġn uc
Ġn á¹¯
Ġl ion
Ġl ived
Ġl ove
Ġl ik
Ġl ighter
ĠC r
ĠC as
ĠC le
ĠC ur
ĠC ons
ĠC ath
ĠC aval
ad ed
Ġe as
ol is
ol itan
Ġbe g
Ġas c
id s
ĠM od
ĠM ah
ĠM ike
ur ra
ĠB ol
ĠB ack
et r
et ing
Ġhe ard
ut ions
ul ed
Ġal read
ter ed
ĠF ederal
ĠF itwatch
ĠP art
ĠP ark
ĠP aul
ĠH ot
ĠH ill
ra ham
ĠJ ac
ĠJ ul
ĠJ ose
ĠJ ones
ĠN ub
un s
um ber
Ġse em
ĠG r
ĠG ang
ĠR ub
ĠR uss
ĠR aph
Ġan alys
Ġat mosp
ĠD el
ĠD VD
ĠE ven
ĠW is
ĠW eb
ĠW add
ag n
ĠL ord
ĠL atin
ĠL arry
ain t
ri pt
ri ps
oc ated
oc ity
Ġpro l
Ġpro bably
os en
os lav
if f
up a
Ġsh ared
ĠIn ter
ĠIn stead
ĠO f
ĠO pen
ĠO cean
Ġv ic
Ġv ac
Ġv eter
Ġv ote
ant our
ab urra
Ġr it
Ġr an
Ġr ise
Ġr ights
Ġr pg
Ġch osen
ip p
ip s
ip al
op ular
und er
und ial
ak ed
ment ed
ber g
ber t
ĠK i
ĠK ur
ĠK ook
ĠV an
ĠV ir
ĠV anc
Ġrec alled
og en
ĠCh ap
ĠCh ampions
ĠCh urch
Ġwor n
ell ion
ĠHe avy
Ġper cent
Ġun able
Ġro ok
oun ted
Ġap g
Ġ4 9
Ġcont act
Ġab and
Ġint ention
ome ch
iz ing
Ġim m
Ġsc he
Ġsc ore
Ġsc ient
Ġsc ene
ok es
ict ed
Ġen l
Ġen cl
Ġen joy
Ġdis s
Ġag ency
Ġag rarian
Ġcl oth
Ġcl othes
te ction
Ġpart ly
Ġreg ions
Ġreg arded
Ġcomp ared
ĠY ou
ĠY ug
Ġne ither
ĠRe volution
Ġfl at
Ġfl ow
Ġfl own
Ġfl owers
Ġpre par
Ġpre mi
Ġrem un
ud e
Ġ6 00
ib ly
ĠUn iverse
ĠDe ities
Ġrep orts
Ġ7 0
Ġ7 7
Ġcons ervation
Ġ8 00
Ġsp ring
Ġinter im
Ġinter ests
form ation
Ġass ist
Ġpr ison
ind er
ĠOn ce
iss ed
Ġdec ades
Ġdec ommission
Ġprodu cer
Ġ9 1
Ġacc laim
Ġkn owledge
Ġam id
end ar
end ers
Ġoper ated
Ġme chan
Ġwrit ings
Ġbet ter
ĠAt um
Ġreleas es
Ġsur pr
Ġarm ored
Ġco b
Ġco al
Ġmin ute
ren ch
Ġsm ooth
Ġmon othe
Ġsub stant
Ġbro wn
Ġsever e
Ġdesign s
Ġtra ined
Ġrece ption
Ġrece iving
Ġhum or
Ġhead ed
Ġhead dress
Ġqu est
Ġmov es
Ġmov ie
ĠAust ria
ĠAll en
Ġoffic ially
Ġele v
ank s
Ġimp ression
Ġpower ful
Ġserv es
Ġworld wide
Ġ191 0
Ġra il
ĠAm y
omen a
Ġspec im
Ġsyn cret
Ġann ual
Ġtem por
Ġlong er
ĠLe ad
ĠEn t
Ġport ion
ĠPh oen
Ġ194 5
Ġdist ance
Ġperson ified
Ġperson nel
Ġfeat uring
Ġexp ensive
Ġexp anded
lid ing
Ġver t
Ġstat istics
Ġcomple te
Ġclass es
ĠAd m
Ġprot esters
ĠComm on
Ġ193 1
Ġmiss ion
Ġcirc ular
Ġfem ales
Ġgreat ly
ĠSc ot
ĠMe an
ĠFl ight
Ġcommer ce
Ġbook s
Ġstory line
Ġsl ightly
Ġcr ime
Ġcr ash
Ġcover ed
Ġdirect ed
Ġdirect ly
Ġallow s
Ġcommun ication
Ġfac ing
Ġlist ing
Ġeven ing
Ġdeal ership
Ġorgan ic
ĠAss ociated
Ġel ite
Ġel der
Ġel imin
Ġauthor ized
Ġattend ant
Ġattend ants
Ġconf ront
Ġord ers
Ġcor ruption
Ġbr idge
Ġround s
Ġocc up
Ġ185 0
Ġ185 4
Ġhistor ians
Ġtit led
Ġcult ural
Ġden ied
ĠAnd hak
Ġgrow ing
Ġfict ion
Ġstand ard
Ġ197 2
ĠUp per
aps ed
Ġsugg ests
Ġworship ped
Ġdi agn
Ġreb ellion
ĠAb raham
ĠSen ators
ĠBro adway
Ġed ition
Ġren amed
ĠPer iod
ĠRich ards
Ġviol ent
Ġfar m
Ġsuccessful ly
Ġtri ple
Ġtyp ically
Ġchampions hips
Ġsubsequ ent
Ġepisod es
Ġsignificant ly
Ġer a
Ġident ified
Ġcour ty
Ġinj ured
ĠAg ain
Ġste am
Ġdecl ared
Ġdepart ed
Ġbrother s
Ġrecogn ized
Ġpain ted
ĠCo ast
ĠBr idge
Ġregul ated
Ġregul atory
Ġwind s
Ġpound s
Ġpract ice
roph ic
ĠSer b
ĠSim ilar
Ġmeth yl
Ġindivid uals
Ġca us
osp ital
Ġexperi ence
Ġpred ecess
Ġreason s
Ġrestrict ions
Ġdeploy ed
ĠGh arap
ĠEx pedition
Ġaccom pl
Ġconcern s
Ġconcern ed
Ġweap on
Ġrespons ibility
Ġillust rated
ĠX III
Ġwee k
Ġhon or
ĠSup er
ĠGl obe
Ġpoly the
Ġult imate
Ġop in
ĠMem orial
ĠJap an
Ġ180 6
ĠCommand er
Ġestablish ment
ĠAf rican
ĠAer odrom
ĠMon ten
Ġdead line
Ġexpect ed
Ġburn ed
ĠBi omech
Ġheav ily
Ġstop ped
Ġproper ty
Ġdeprec ating
Ġcolle ge
Ġcircul ate
Ġenvironment al
ĠEntertain ment
Ġtort ure
Ġcat aly
Ġbene f
ĠSar ah
ĠCor ps
Ġwithd ra
Ġanch or
ĠDu at
Ġuncon stitutional
Ġenem y
Ġmanifest ations
Ġstruct ure
ĠAppe als
Ġcosm os
Ġdaugh ter
ĠMore los
ĠFour teenth
ĠHen ry
ĠInf inity
Ġcompan y
Ġnewsp aper
Ġobtain ed
Ġsubstr ate
Ġquar ter
Ġrain fall
ĠCharact ers
stronom ical
Ġexclus ively
Ġfest ival
Ġpa id
Ġpist on
Ġdedic ated
ĠMach ine
ĠBud d
ĠPerson al
ĠHun wick
Ġconne ction
Ġproc ured
Ġrecomm ended
Ġpreserv ed
Ġcircum stances
Ġpasseng ers
Ġdeliver y
ymn s
Ġrebound s
ĠWeek ly
Ġdrum s
Ġhappen ed
Ġaz irid
Ġweb site
Ġcitiz ens
Ġfra gments
Ġbott om
Ġrese arch
Ġstreng th
ĠWind s
ĠLim antour
ĠLombard o
Ġchann el
quar ters
ĠUN ES
Ġexten sive
Ġsched uled
Ġens ure
ĠShort ly
ĠSecret ary
Ġpries ts
Ġtwent y
ĠMaury as
Ġbehavi our
Ġinterpre ted
Ġlangu age
Ġurb an
Ġphen omena
Ġdire ction
ĠSyd ney
ĠSatur day
Ġnuc le
Ġná¹¯ r
ĠCath olic
ĠBack ground
Ġalread y
ĠRub in
ĠRuss ell
ĠRaph ael
ĠWeb b
ĠKook aburra
ĠVanc ouver
Ġrook ie
ĠYug oslav
ĠPhoen ix
ĠBridge port
ĠGharap uri
ĠUNES CO
6 9
C A
I M
P L
S I
S AR
a ith
b o
b ar
b ury
b oat
b ody
c a
c an
c il
c el
d ing
d ehyd
e en
f l
f ull
g n
g on
g ren
h at
h ile
h ym
i i
i ac
i os
i ations
i enn
j Åį
l ake
n iew
p ly
p son
r um
r ity
r ash
t ar
t rack
u a
u x
u is
u ky
v ings
w ise
w hile
y th
z er
ª ãĤ
æ Ī
Ġ +
Ġ ice
Ġt act
Ġt win
he ast
Ġa ck
in i
er a
er r
er ation
er ia
re cht
Ġs q
Ġs us
Ġs pl
Ġs we
Ġs ides
ed om
Ġo d
Ġw it
Ġw atch
Ġw ants
at us
at ers
at ings
at form
at isf
or a
or ic
or ad
or ia
or bed
it o
it t
it ia
it led
Ġc ab
Ġc op
Ġc orn
Ġc row
Ġc iting
Ġc ells
Ġc ycl
Ġf ou
Ġf ate
Ġf ant
Ġf ell
Ġf old
Ġf uel
Ġf aith
ar f
ar i
ar ts
Ġp ack
Ġp ap
Ġp ull
Ġp age
Ġp ushed
al ers
al uky
Ġin vent
Ġb om
Ġb ond
Ġb order
Ġd ance
Ġd ress
Ġd ang
ic ist
ic ity
ic ient
Ġto ward
Ġto day
ro it
ro ke
ro vers
Ġm aps
Ġm otion
Ġh y
Ġh ol
Ġh ired
Ġh ockey
Ġh abit
Ġh ospital
ĠT rib
ĠT rans
ĠT ina
Ġre v
Ġre ally
Ġre ject
Ġre ven
Ġre semble
le te
le ans
ou ts
Ġth rash
Ġg raph
Ġg ained
Ġg amb
ent i
ĠA D
ĠA ut
ĠA gg
ĠA uthor
il ed
il ian
ĠS il
ĠS uch
ĠS ports
ĠS isters
ĠS ummer
ĠS umm
st on
st ained
el ocity
om s
am ing
am ity
am ents
am den
Ġn or
Ġn ort
Ġn ative
Ġl ad
Ġl og
Ġl ock
Ġl eng
Ġl oad
ĠC ess
ĠC oun
ĠC oy
ĠC amp
ĠC ool
ĠC irc
ĠC elt
ĠC ape
ĠC amden
ol s
ol er
Ġwas n
iv als
ot o
ot ing
im al
im oto
Ġbe at
Ġbe ar
Ġbe am
ig er
ig ation
ac ement
id as
ĠM es
ĠM as
ĠM art
ĠM ass
ĠM ark
ĠM ount
ĠM aria
ĠM ama
ur st
ĠB el
ĠB ry
ĠB oy
ĠB ern
ĠB rian
ĠB under
et roit
Ġhe art
Ġhe alth
Ġst al
Ġst ing
Ġst one
Ġst ring
ul g
Ġal le
Ġal dehyd
ĠF all
ĠF ame
ĠF ore
ĠF ort
ĠF rench
Ġde leg
Ġde emed
ĠP re
ĠP en
ĠP ict
ver ton
ĠH ard
ĠH ome
ĠH ind
ĠJ o
ĠJ am
ĠJ ason
ĠJ erry
ĠN or
ĠN ear
ĠN ile
ĠN ah
un ch
um es
um ption
Ġse gment
Ġse quel
ĠG ob
ĠG rant
ĠR es
ĠR et
ĠR aven
ĠR oad
ĠR ector
ĠR hym
Ġan throp
Ġcon v
Ġcon cept
Ġcon stant
ĠD H
ĠD ue
ĠD etroit
ch ange
ĠE sta
ĠW ild
ĠW ilm
ĠW ald
her s
ĠL t
ĠL ist
ĠL ieutenant
Ġcom ed
Ġcom ic
Ġpl ant
Ġpl acing
Ġpl atform
Ġpro ve
Ġpro of
Ġpro spect
Ġpro tection
pt ic
if t
igh th
Ġsh ut
ĠO ver
ru ce
ru ction
est on
Ġv elocity
ab ric
Ġr ar
Ġr ival
Ġr atings
ip l
ia h
ak s
ak er
ap pe
Ġsu c
Ġsu stained
ction ed
Ġy outh
Ġy ield
Ġy ellow
ĠK ick
ĠSt ud
ĠSt one
ĠV ienn
Ġrec ru
Ġplay s
ĠCh aluky
pl ed
ran ged
Ġper fect
Ġun ivers
Ġun iverse
Ġro w
Ġro ugh
Ġro ster
Ġair worthiness
Ġ18 3
Ġ4 2
Ġ4 6
Ġcont ent
Ġcont em
Ġcont ain
per ial
Ġim pl
Ġim medi
ish ing
mer cial
ach ing
Ġen vision
Ġdis appe
Ġother wise
Ġ5 9
erv e
Ġoff ensive
Ġshe lls
Ġj ets
Ġj ump
Ġpart ially
ult ane
ĠTh rough
ĠTh ird
ĠY et
Ġad j
Ġad m
ĠAl ong
ĠAl so
ĠEgypt olog
ark ed
Ġfl ag
Ġpre m
ck ed
ĠUn it
Ġrel ating
Ġrel atively
Ġrep air
Ġ7 00
Ġcons ult
Ġcons ists
Ġcons cious
Ġ8 2
Ġfour teen
vel and
Ġret ained
Ġsp orts
Ġsp ores
ĠSe x
ĠSe ga
Ġchar ges
Ġunder standing
Ġass oci
Ġass ociated
Ġass ault
Ġcar rying
Ġcar vings
Ġpr iv
ĠAn ti
rib utes
ĠOn ly
Ġdec ade
Ġdec line
Ġprodu ces
Ġatt ached
Ġatt ributed
Ġear ned
ĠGA SAR
Ġ9 0
Ġ9 9
Ġacc used
Ġdiv ision
Ġkn ew
Ġkn ots
end ing
Ġoper ate
Ġpol icing
Ġappe al
Ġnum erous
Ġcan n
vol ved
az ers
ash ion
Ġmon uments
Ġsub mar
Ġbel onged
ÃŃ a
Ġtra its
Ġrece ive
Ġ198 0
Ġqu ant
Ġpers u
ĠCom mercial
Ġhigh way
Ġhigh light
ual ties
Ġtrans l
Ġdisc ern
ob i
Ġpower ed
Ġbl og
Ġwin s
Ġdid n
Ġloc ations
Ġ191 9
ĠBl azers
Ġ186 0
Ġ186 4
Ġcre ate
ĠAm ad
ĠAm ong
ĠAir port
Ġaer op
Ġ15 0
Ġ15 8
Ġann ually
Ġmy ster
ĠWh ite
ĠWh alers
Ġthough ts
ĠCro ss
ĠBlu es
Ġpur s
ĠJack son
Ġ194 8
Ġvar ian
Ġband mates
Ġsuccess or
Ġcol or
Ġexp ans
Ġappear ing
Ġappro ved
ann er
Ġprom ote
Ġprom ulg
Ġreview er
Ġwe ight
Ġpop ulation
ĠBrit ain
Ġ11 0
Ġ193 3
Ġ193 8
enn is
Ġdet er
Ġrequ est
Ġart ists
Ġart work
Ġinst alled
Ġsing er
Ġinvol ves
omet ric
ox onium
Ġsim ply
Ġlim it
Ġstory lines
ĠFran ce
Ġsol ar
Ġsol id
Ġcr imes
Ġcover s
rop olitan
Ġequ ated
Ġstr ateg
Ġstud ent
ĠArk adelphia
Ġfac es
Ġpost c
Ġpass ing
ĠOr d
ĠOr gan
ĠOr der
ĠOr leans
Ġleg al
Ġresult ing
yp se
Ġdeath s
Ġorgan ised
Ġorgan izations
ĠAtl antic
ĠJew s
Ġtradition s
Ġgr ant
Ġgr anted
ĠHung ary
Ġattack ed
Ġfoot age
Ġdest ruction
Ġsty les
Ġ196 0
Ġcomb ination
Ġline up
Ġprof ile
Ġhistor ic
eor ological
Ġopp osed
Ġopp onents
Ġcult ure
Ġrepl acement
Ġ24 0
Ġcommon ly
Ġsulf oxonium
Ġdra ped
Ġland ed
ĠUp on
Ġcritic ism
Ġcritic ized
Ġdi aster
ĠSen ate
ĠSen jÅį
ĠMc C
ĠBro wn
Ġval uable
Ġrun ning
Ġsuff ering
ĠItal y
ris on
ĠPer haps
Ġearl iest
Ġviol ation
Ġviol ated
Ġpie ces
Ġrul es
Ġloss es
Ġcru el
ĠCal if
Ġvis ible
Ġimpro ved
ĠMex ican
Ġstrong ly
uk i
ĠÂ ²
Ġcoll apsed
Ġfail ing
ĠCl ass
ĠMet ropolitan
Ġanim ated
Ġanim als
Ã¡ n
ĠPlay ing
Ġcondu ct
Ġabs orbed
ĠReg ular
Ġestim ates
ont o
Ġsitu ations
Ġrevolution ary
ĠCo ach
Ġdev otion
ĠPres ervation
Ġsurv iving
Ġeffect ive
Ġsculpt ures
ĠPennsylvan ian
Ġwind ow
ĠSim on
Ġexc av
Ġexist ing
Ġexpl ained
Ġclos ure
Ġclaim ed
Ġclaim ing
Ġprin cess
ĠCharl eston
Ġesc aped
rant o
Ġpan els
Ġmach inery
oph il
Ġmaintain ing
Ġwid er
Ġpred omin
Ġinsp ired
Ġtown s
ĠSm all
eth yl
Ġdeploy ment
ĠGall ia
Ġadapt ation
Ġrespons ible
Ġwa it
Ġwa ist
Ġthreat ened
ĠIm perial
Ġkeep ers
Ġneg ot
Ġneg ative
Ġbroad ly
Ġview s
ae ological
rack s
Ġgen us
ĠSur vey
Ġstation ed
Ġprogress ive
Ġfinish ing
Ġdeterm ine
Ġslow ly
Ġphotograph s
the less
ĠMed ia
ĠHigh way
Ġcho ice
hm a
min istr
ĠTem ple
Ġliter ature
ĠRel ig
Ġshif t
Ġspect rum
Ġamb ient
Ġacqu ired
Ġdefense man
Ġstrugg le
Ġcircul ated
Ġreflect ing
Ġlicens ed
Ġlicens ing
Ġdw arf
ĠTor onto
Ġlink ed
ĠMal one
urre ction
ĠBab y
ĠPri or
Ġconce pts
ĠWal ter
ocal ypse
ĠOt ranto
Ġrad io
quel ine
Ġenanti oselective
Ġsurre nder
Ġsaf ety
Ġhelicop ter
Ġhelicop ters
ĠGreen away
Ġpharaoh s
cri ption
chest ra
Ġhier arch
ĠTod d
Ġrever se
ĠBill board
ĠBah rain
ĠPit lake
ĠDr atch
ĠLa verton
ĠOlym pic
Ġresc ue
Ġimprov ements
Ġaccompan ied
rid ges
Ġcart ridges
Ġfut ure
Ġbad ly
Ġmom ent
oura ged
Ġnomin ated
ĠBal agu
ĠBra hma
ĠHouse full
ĠRod man
Ġchall eng
ĠVict oria
Ġincorpor ated
ĠArch aeological
Ġapparent ly
Ġvers ions
Ġbrut ality
Ġrenew ed
Ġcruis ers
ĠObserv atory
Ġjewel ry
Ġfr ame
Ġpanthe on
Ġmun itions
ĠTri ana
Ġstra ight
ĠJup iter
Ġsevent h
ĠGard en
Ġcham bers
ĠAnton io
Ġsuppl ies
Ġperspect ive
Ġfuner ary
Ġdiam eter
Ġpaint ings
Ġcasem ate
Ġdocument ary
mn is
vil le
Ġrom antic
Ġtun ing
Ġwood en
Ġpill ars
ĠSou thern
ĠSab res
ĠSak imoto
ĠCas ualties
ĠCle veland
ĠCur tis
Ġbeg ins
ĠBol lywood
ĠJac queline
ĠJose ph
ĠWis niew
Ġprol ific
Ġveter an
ĠKur t
ĠChampions hip
Ġencl osed
Ġdecommission ed
Ġcob ra
Ġquest ion
Ġelev ated
ĠEnt ry
ĠAdm iral
Ġelimin ated
Ġopin ion
Ġbenef it
ĠBudd hist
Ġazirid ines
Ġnucle ophil
æĪ ¦
Ġack n
Ġcab inet
Ġcrow d
Ġpage ant
Ġgamb ling
Ġnort heast
Ġleng th
ĠCess na
ĠCoy otes
ĠCelt ics
ĠPict ures
ĠHind man
ĠNah ant
ĠGob recht
ĠRhym es
ĠEsta Ã±ol
ĠWilm ington
Ġimmedi ately
Ġmyster ious
Ġstrateg ic
Ġdiaster e
ĠBalagu er
ĠWisniew ski
5 0
C H
C AA
D T
S P
T A
U J
V ision
a Ä
a ug
b or
b ing
b ack
c he
c ol
c ul
c est
c ome
c sen
c apes
d a
d e
d han
e f
e k
e es
e an
e ch
f e
f is
g s
g ear
g uns
h ot
h um
i ate
j o
k n
k er
k ut
k ey
l au
l aces
l oad
m as
m id
m ons
m ath
n ered
n iel
n esty
o ich
o ons
p a
p at
p ent
p ics
r or
r ig
r ised
r ica
s ons
s ych
t a
u j
u ah
v o
w rit
y er
y an
z ky
¡ ãĥ
¥ ãĥ
« ãĤ
´ ãĤ
´ ãģ®
µ m
Ã ¤
å ł
Ġ i
Ġ z
Ġ ir
Ġ ere
Ġ ign
Ġ æĪ¦
į iÄĩ
Ń ãĥ
Ġt on
Ġt all
Ġt ast
Ġt ree
Ġt ape
Ġt urre
Ġt iger
he m
Ġa u
Ġa ro
Ġa ug
Ġa ware
in is
in th
in ary
in ence
Ġthe ories
er ning
on ent
on ald
re g
re ct
Ġs n
Ġs om
Ġs ess
Ġs ell
Ġs port
Ġs ail
Ġs ets
Ġs ung
Ġs ink
Ġs ales
Ġs ought
Ġs undial
ed ing
Ġo vation
Ġw r
Ġw ore
Ġw ings
Ġw ound
Ġw reath
nd ered
at ar
at ile
at ics
at ures
at ched
at hered
or ge
or ous
or ph
or ring
it ish
it ude
Ġc is
Ġc ot
Ġc ell
Ġc ities
Ġc ous
Ġc rop
Ġf ine
Ġf ast
Ġf les
Ġf ring
Ġf aced
Ġf ont
Ġf ert
Ġf ighters
Ġf ashion
en ing
en ge
is i
is is
ar c
ar ves
Ġp o
Ġp il
Ġp over
Ġp ace
Ġp ose
Ġp ath
Ġp ier
Ġp atch
Ġp owers
Ġp sych
an as
al m
al ing
al ato
Ġin side
Ġin struct
Ġin aug
Ġb ed
Ġb es
Ġb ig
Ġb ur
Ġb are
Ġb ound
Ġd ri
ic he
ic ed
ic ro
ic le
Ġto urn
ro c
Ġm ist
Ġm ap
Ġm ob
Ġm ounts
Ġm ounted
Ġh ull
Ġh oard
Ġh app
ĠT reat
ĠT amp
ĠT enn
ĠT uck
Ġre ar
Ġre vol
le ge
le ctions
le vision
le tic
Ġth ick
Ġg ig
Ġg ate
Ġg ets
Ġg athered
ent ed
ent al
ĠA ction
ĠA khen
ĠA stronomical
il omet
ĠS k
ĠS ign
ĠS ub
ĠS aj
ĠS ilver
ĠS pan
ĠS IM
st rips
el i
el ing
el erated
om a
Ġn orthern
Ġn atural
Ġn inth
Ġl in
Ġl ose
Ġl ists
Ġl ines
Ġl iving
Ġl ibrary
ĠC ly
ĠC op
ĠC oin
ĠC oll
ĠC ub
ĠC ana
ĠC att
ad or
ad ow
Ġe ighth
ir n
ir ra
ir med
ol k
ol ute
ĠThe bes
iv o
iv ated
ly ph
ot ive
ot illa
Ġfor t
Ġfor th
im ents
im eter
ow ie
ig hed
ac hes
ac hel
Ġas king
id ian
ĠM y
ĠM it
ĠM ir
ĠM ot
ĠM aj
ur a
ur ity
ay a
ĠB U
ĠB res
ĠB urn
ĠB oth
ĠB rist
ĠB owie
et her
et ts
et zky
ĠI R
ĠI mber
ĠI CA
Ġhe ro
Ġst ern
Ġst ages
Ġst ained
Ġst ories
Ġst ores
Ġst roke
ut ing
ul ace
Ġal one
ĠF ar
ĠF il
ĠF am
ĠF ly
ĠF ru
ĠF ear
ĠF oot
ĠF ront
ĠF urther
ĠF uj
Ġde volved
ĠP e
ĠP at
ĠP an
ĠP ur
ĠP red
ĠP otential
ĠP ius
ĠP tah
ver tis
ĠH og
ĠH ymns
ra el
ĠJ r
ĠJ on
ĠJ os
ĠJ enn
ĠJ AR
ĠJ ersey
ĠJ orge
ĠN W
ĠN a
ĠN on
ĠN ever
ĠN ote
ĠN atural
ĠN CAA
ĠN UJ
ĠN atar
un t
od e
um e
Ġwh itish
Ġse mi
Ġse lection
ĠG ames
ĠG round
ĠG uth
ĠG roup
ĠG liding
ĠR if
ĠR oll
ĠR ace
ĠR aj
ĠR ob
ĠR ush
ĠR oom
ĠR ules
ĠR ashtra
ĠR yan
av a
Ġan cest
us etts
Ġcon st
Ġcon vin
Ġcon sequ
ĠD h
ĠD an
ĠD ate
ĠD ave
ĠD ennis
th off
ĠE y
ĠW ake
ĠW irra
ĠL ore
ĠL ast
ĠL iz
ĠL eop
ĠL ove
ĠL emon
ĠL ocal
ord ers
Ġit em
pt ing
all ica
Ġor acles
ist as
ist ry
ill es
Ġsh are
Ġsh ape
ess ed
ĠO l
ĠO ur
ort ed
Ġv ul
Ġv ener
Ġv ision
Ġv int
Ġv irt
ian ce
ant ly
ant ry
ab or
Ġr h
Ġr is
Ġr ing
Ġr ac
Ġr iver
Ġr ural
Ġr acing
Ġr ays
Ġch art
Ġch ief
Ġch ivo
qu ate
op her
op olis
Ġâ Ĥ
ĠU l
Ġex port
Ġex change
Ġle ap
Ġle ave
ap les
Ġsu itable
our se
our ney
ĠK e
ĠK h
ĠK hen
ĠK obe
ĠK erry
ĠK irn
ĠSt an
ĠSt and
ĠSt upa
ĠSt orring
ĠSt aples
ine a
ĠV I
ĠV er
ĠV ice
Ġnot able
ov ing
Ġk ilomet
Ġrec ent
Ġrec over
Ġrec ount
og lyph
ĠCh ris
ĠCh ih
ran ean
ell a
ĠHe in
Ġar rest
Ġar ranged
Ġper ce
Ġper haps
Ġper ception
Ġun c
Ġun ified
Ġun less
Ġun kn
Ġro se
Ġair line
Ġair strips
Ġinc idents
Ġte xt
Ġ4 3
Ġ4 22
Ġcont ained
Ġcont rovers
Ġ201 6
ph or
Ġint ense
iz a
Ġim ag
Ġsc or
Ġsc en
du le
ach ute
ach usetts
Ġdes cend
Ġdis g
Ġdis ru
Ġ5 7
Ġag ents
Ġoff sh
Ġoff enders
ough ts
Ġcl im
Ġcl utch
ron s
Ġj et
Ġj ack
Ġj okes
Ġj ourney
Ġpart y
Ġpart ies
Ġup ris
ult ural
Ġcomp rom
Ġcomp onents
ĠTh us
ĠTh ree
Ġad mitted
Ġne igh
Ġafter math
ĠAl ice
ĠAl ien
ĠAl bert
Ġres ign
Ġres igned
ĠRe view
Ġcomm em
Ġbas ket
Ġspe aking
Ġspe ech
Ġfl o
Ġfl ood
Ġfl otilla
Ġpre f
Ġpre cious
Ġrem ix
Ġrem inis
ĠAr dhan
ĠAr niel
ĠAr aya
Ġ6 3
Ġ6 9
Ġgro wn
ĠUn break
ky l
Ġact ually
ĠDe an
Ġrep et
Ġrep orter
Ġ7 2
Ġ8 3
Ġ8 4
Ġ8 5
Ġ8 9
Ġret ention
Ġret iring
Ġsp ruce
Ġchar co
ten ance
Ġinter ior
Ġinter vention
Ġsy m
form ed
Ġcent re
ubl ican
Ġpr ay
Ġpr ice
ind isi
Ġbu y
Ġbu ck
Ġsup erv
Ġsup reme
iss ipp
Ġdec orated
ĠAs h
we alth
Ġ9 7
Ġ9 00
Ġacc ur
Ġacc idents
Ġam nesty
Ġso il
Ġso ft
Ġdep os
Ġoper ates
orth y
ens es
Ġser ious
ific ations
land o
Ġnum ism
Ġsur pass
Ġarm ament
Ġarm lets
az a
Ġmin isters
ren cy
ath i
ism al
Ġsub mitted
Ġsever ely
Ġfollow s
orn e
orn ia
Ġpos itively
Ġtra w
Ġ198 3
ather ine
Ġhum ili
Ġhead s
Ġhead gear
Ġdo ing
Ġmov ing
Ġtrans it
Ġplan e
Ġplan ets
Ġent ry
Ġent ering
Ġent itled
rol led
Ġsmall est
ĠJohn ny
ĠCol lege
Ġimp erson
Ġac res
Ġdef end
Ġdef ensive
Ġdem olition
Ġsign s
Ġsign ing
Ġdevelop ing
Ġany one
Ġany thing
Ġrepresent atives
Ġperform ances
por ate
Ġwin ter
Ġwin ner
Ġ191 2
Ġ191 4
Ġ191 7
Ġ186 5
Ġspec ie
Ġspec ulation
Ġinf ring
ĠBe h
ĠBe cht
Ġaer ob
Ġcrit ically
Ġfilm ed
Ġ15 1
Ġ15 7
ĠInd ra
Ġstar ts
Ġstar ring
Ġann ot
Ġmusic ians
Ġmy st
Ġmy self
Ġcontin u
ĠWh ig
ĠLe o
ĠLe on
ĠLe Ã³n
Ġpres ided
stru ctions
apt ismal
ĠNo ises
Ġconc ur
Ġconc ludes
Ġconc erning
ful ly
Ġsong writ
ĠIs rael
ĠPh ys
Ġ194 4
Ġvar ies
Ġtrad ing
Ġbelie ve
Ġdist urb
Ġdist ributed
Ġdist ribution
Ġmil itia
Ġgovern ed
ĠII FA
Ġ13 0
Ġstat us
Ġappear s
Ġappro pri
con struction
Ġactiv ists
ĠColumb ia
Ġfam ous
Ġprom pted
Ġset t
Ġset ting
Ġwe ighed
Ġpop ulace
ĠAd d
Ġprot ected
Ġeng raver
ĠComm ittee
ple ment
Ġnear by
Ġem otion
Ġem otional
Ġeff orts
Ġ193 6
Ġrequ ested
Ġgun boat
Ġart ist
Ġobserv ation
Ġcirc le
Ġinst it
Ġfem in
ĠSc reen
ĠGu est
ĠGu ide
ĠGu inea
Ġturn ing
Ġsim ultane
eng ue
yd ay
Ġpar cel
Ġlim iting
Ġincreas ing
Ġcr imin
Ġcr isis
Ġcommun ities
Ġmembers hip
Ġpresent ed
Ġlist ed
ĠOr lando
Ġprim aries
Ġdepict ion
ne ad
ĠTe get
ĠDes ign
Ġshot s
Ġshot guns
Ġattem pts
Ġel se
Ġdel ay
Ġdel iber
Ġlarg est
ĠUS S
Ġtro ub
Ġconf irm
ĠDar ling
ĠDar by
ĠDar csen
Ġcompet ed
Ġattack ing
Ġcor rect
Ġcor porate
Ġfore st
Ġfore head
Ġput ting
Ġdest ination
ĠMan iac
Ġ196 2
Ġcomb at
istic ated
Ġjoin ing
Ġsystem s
Ġmyth ology
ym ph
Ġfun ctions
Ġshr ines
ĠChrist opher
Ġhistor ian
Ġide ology
Ġhost ile
Ġless er
Ġ195 2
Ġrepl ied
ĠMVP s
Ġ197 3
Ġav oid
iter ranean
Ġpat rol
ĠAct ors
Ġamong st
gin ia
ĠAb bes
ĠBro ok
Ġshould er
Ġposs ibility
Ġsignific ance
Ġcivil ian
Ġren ov
Ġprocess ions
Ġguit ars
Ġviol ence
Ġsimilar ly
thes is
Ġfung i
Ġpe at
Ġdr iven
Ġshoot out
Ġrul er
Ġrul ing
Ġintro duction
Ġpresident ial
Ġcru cial
Ġfle x
Ġpick ed
stit ution
ĠCal amity
Ġsect ors
Ġvis ual
Ġyoung est
Ġindic ating
ĠÂ µm
Ġfail ure
ĠMet allica
ĠMax im
rif ice
Ġext ent
app ing
Ġkill ing
Ġparticip ate
Ġfocus es
Ġident ity
Ġwall s
Ġins pect
Ġreve al
Ġreve als
Ġlic ence
Ġlic ences
Ġlaw yer
ĠMar c
Ġstri k
Ġdepart ment
Ġdepart ure
Ġbattle field
Ġevery one
Ġfictional ized
Ġavail ability
Ġrecogn ition
Ġrecogn ised
Ġcred it
Ġpri ze
Ġpress ure
Ġrevolution aries
ĠBr indisi
ĠEar th
Ġexpress ion
Ġeffect ively
Ġmaskray s
Ġfre edom
Ġhill s
Ġrank s
Ġrank ing
Ġexc luded
Ġqual ity
Ġqual ified
Ġdoes n
ãĥ ´ãĤ
Ġru ined
Ġsac rifice
Ġclub s
Ġinv est
Ġsearch ing
Ġappl ication
Ġjud ged
Ġsupp osed
Ġappoin t
Ġsymbol ic
Ġaff ected
Ġlif et
Ġlif ted
ĠKn owledge
Ġ188 0
Ġcoach ing
Ġaut obi
Ġcapt ain
Ġdro ve
Ġeconom y
ĠIm p
ĠDah au
Ġkeep ing
Ġ189 5
Ġadd ress
Ġpoly ch
Ġbattles hip
Ġsexual ity
Ġrif le
Ġsket ches
Ġschol ar
Ġop port
Ġpen etr
Ġmount ains
Ġhor se
let es
ĠSl av
ĠSl ov
ĠMag azine
Ġproble m
Ġorb it
Ġ187 3
Ġdefe at
Ġmodel ing
Ġdeterm ined
Ġceremon ies
Ġcandid ates
Ġsound ing
Ġcross ed
ĠAf rica
ĠSyn agogue
ĠSyn thesis
eles cope
ĠMed iterranean
ĠHorn ung
Ġprohib ited
Ġexpect ations
Ġroom s
Ġagre ement
Ġprep are
ĠAmend ments
Ġcurrent ly
Ġmot or
Ġmicrol ight
Ġlay er
ĠHol lywood
ĠDem ocr
ĠLank an
Ġ38 5
oselect ivity
Ġdeprec ation
Ġmint age
ĠScott ie
ĠAgust in
Ġdreadn oughts
18 22
Ġben z
Ġben ch
Ġdw ell
Ġread y
ĠSp alato
Ġlot tery
ĠCor ral
Ġwithd rew
ĠPlan ning
Ġselect ivity
ĠRam fis
ĠOt t
Ġexec utive
Ġunl ike
Ġenem ies
Ġsurre ndered
Ġfunction al
ĠBattle field
ĠTurk ey
Ġcateg or
Ġbi ography
Ġhop ed
Ġhang ing
Ġhier oglyph
ĠTod ay
ĠMiss issipp
ĠBah am
Ġath letes
ĠOlym pics
Ġrecon struction
Ġmanufact ure
Ġinstrument ation
Ġprinc iple
bur gh
sc op
Ġpleas ed
Ġdut y
Ġdut ies
Ġgar rison
ĠAc adem
ĠSch mid
Ġbeaut y
Ġbeaut iful
ĠHum an
Ġang ry
ĠWrit ing
Ġvan ished
ĠKim my
ĠVar iety
Ġaggress ive
ĠYog ishvara
Ġpreced ing
Ġundert ake
Ġsuper ior
Ġsurf ace
Ġenter tain
Ġdiscuss ed
Ġcolumn s
Ġrespond ed
ĠCanad ian
eg ro
Ġsoph isticated
Ġinh ab
Ġbon us
Ġbar racks
Ġmumm ies
Ġnorm ally
ĠProm oted
ĠPip pen
ĠHa it
ĠRad etzky
Ġorn ament
ĠOff ice
Ġvo ice
Ġvess els
Ġkey bo
Ġperm ission
Ġunp opular
Ġairship s
Ġscr utiny
Ġdism issed
Ġdisapp oin
ĠSha wn
Ġremember ing
Ġgross ing
ĠUnl ike
Ġfinan cial
Ġunderst and
Ġinterse ct
Ġsuppor ters
Ġsubstit uted
ĠBeau f
ĠAdri atic
Ġrequire ments
Ġepithe ts
ĠOrigin ally
Ġvalid ity
Ġpossess ion
Ġsatisf y
Ġelector al
Ġgradu ated
Ġsanct uary
Ġreinforce ments
ĠPorfir io
Ġwant ing
Ġblu e
Ġdim ethyl
Ġlik ely
ĠCr im
ĠCaval iers
Ġeas ily
ĠNub ia
Ġanalys is
Ġatmosp her
Ġvic inity
Ġvac ant
Ġrit ual
ĠVir ginia
ĠChap el
Ġpercent age
Ġaband oned
Ġenl isted
Ġcloth ing
Ġpremi ere
Ġmechan ism
Ġsubstant ial
Ġrail road
Ġspecim en
Ġtempor arily
ĠLead eth
Ġvert ical
ĠCommon wealth
Ġoccup ied
ĠAndhak a
Ġdiagn osed
Ġfarm land
ĠAgain st
Ġmethyl ene
Ġcaus ing
Ġpredecess ors
Ġaccompl ish
Ġpolythe istic
ĠAerodrom e
ĠMonten egro
ĠYugoslav ia
ªãĤ ¢
Ġswe ep
Ġwit ness
Ġfant asy
Ġbom bers
Ġreject ed
Ġreven ge
ĠCoun cil
ĠMass achusetts
ĠBry ant
Ġsting ray
Ġalle ged
Ġconstant ly
ĠWald rons
Ġcomed ian
Ġsuc ceeded
ĠVienn a
Ġrough ly
Ġenvision ed
Ġdisappe ared
ĠEgyptolog ist
Ġsubmar ine
ĠAmad ito
Ġvarian ts
Ġexpans ion
Ġpromulg ated
Ġpostc ards
ĠOrd nance
Ġcruel ty
ĠCalif ornia
Ġexcav ation
ministr ation
Ġframe work
mnis cient
Ġnucleophil ic
Ġackn owled
oich i
¡ãĥ «ãĤ
¥ãĥ ªãĤ¢
´ãģ® ãĥ´ãĤ
åł ´ãģ®ãĥ´ãĤ
ĠæĪ¦ åł´ãģ®ãĥ´ãĤ
Ńãĥ ¥ãĥªãĤ¢
Ġtast e
Ġturre ts
Ġaug mented
Ġcis tern
Ġcot ton
Ġfles h
Ġpover ty
Ġbare ly
Ġmist aken
ĠTamp a
ĠTenn ant
ĠAkhen aten
ĠSaj id
ĠSpan ish
ĠCly de
ĠColl ins
ĠCana an
ĠBres lau
ĠBrist ol
ĠImber t
ĠICA O
ĠHog lan
ĠNever theless
ĠNatar aja
ĠGround sel
ĠGuth rie
ĠRoll ing
ĠRashtra kut
Ġvint age
Ġvirt ually
ĠStorring ton
ĠChih uah
Ġoffsh ore
Ġreminis cent
ĠArdhan ar
ĠUnbreak able
Ġcharco al
ĠNoises capes
ĠPhys icist
ĠTeget thoff
ĠManiac s
ĠMississipp i
ĠSchmid t
Ġkeybo ards
¡ãĥ«ãĤ Ńãĥ¥ãĥªãĤ¢
ĠæĪ¦åł´ãģ®ãĥ´ãĤ ¡ãĥ«ãĤŃãĥ¥ãĥªãĤ¢
1 1
2 1
3 4
4 2
6 0
8 7
A F
B ron
F C
L C
M us
M atters
N A
P PL
W ASP
W II
Y O
a is
a ur
a et
a un
a res
b an
b ow
c ast
c rib
c ons
c ÃŃa
d ul
d ec
d den
e in
e per
e ah
g ar
g am
g ah
g raph
g ement
g row
g ency
g rand
h l
h ay
h ug
h man
h ouse
i j
i ad
i ated
i atus
j i
j ou
j un
k ner
l lu
l usion
l oud
m on
m es
m ing
m ith
m ill
m ore
m ark
n z
n ow
n ers
o j
p id
r ation
r us
r ast
r ors
r ster
s er
s ity
s ulf
s bur
t c
t or
t ole
t rolled
u w
u ge
u iz
u ance
u ccess
u aries
u ert
v ant
v ine
v ement
v Ã¡n
w ar
w ent
w ame
w est
w ell
x ford
y ard
y oming
z ent
z ure
z awa
¶ rster
Ã ¶rster
Ġ ?
Ġ Å
Ġ ri
Ġ elf
Ġt am
Ġt im
Ġt ong
Ġt ub
Ġt ry
Ġt rying
Ġt elling
Ġt ells
Ġt aught
Ġt ribute
he arts
Ġa vi
Ġa ired
Ġa unt
in son
Ġthe at
er o
er ic
er et
er gy
on i
on n
on ic
on el
on ton
on jou
re sted
Ġs en
Ġs le
Ġs and
Ġs ap
Ġs our
Ġs ave
Ġs ie
Ġs ke
Ġs elling
ed ication
ed ding
Ġo ri
Ġo ption
Ġw is
nd s
at hed
or is
or able
or ious
or ative
it ar
it ic
it ab
Ġc ow
Ġc ore
Ġc ard
Ġc yl
Ġc hest
Ġf er
Ġf als
en a
en en
en ue
en cing
en oid
is ia
is ition
is ations
is ational
es p
ar o
ar io
ar ashtra
Ġp ion
Ġp ot
Ġp ine
Ġp ure
Ġp ix
Ġp orts
Ġp ush
Ġp ole
an ing
an ic
an ide
an ium
al o
al og
al ach
al ance
al ty
Ġin ferred
Ġin sec
Ġb omb
Ġb aptismal
Ġb alance
as ion
as ters
as ized
Ġd er
Ġd om
Ġd ur
Ġd un
Ġd ru
Ġd ial
Ġd ub
Ġd ry
Ġd ens
Ġd ating
Ġd rop
Ġd unk
Ġd uff
Ġd edication
ic ial
ic ap
ic ely
ic ens
ic ating
ic ipal
Ġto ured
Ġto ler
Ġto ols
ro ud
ro oted
Ġm ason
Ġm arg
Ġm arch
Ġm oon
Ġm utiny
Ġm icro
Ġh om
Ġh und
Ġh ire
Ġh ung
Ġh ole
Ġh omes
Ġh iatus
ĠT w
ĠT un
ĠT our
ĠT ime
ĠT ax
Ġre j
Ġre le
Ġre ign
Ġre ach
Ġre act
le ton
Ġth igh
Ġth orns
Ġg ran
Ġg over
Ġg one
Ġg ale
Ġg ray
Ġg aining
ĠA ra
ĠA round
ĠA ware
ĠA SI
ĠA zure
il ation
il ers
il ies
il isation
ĠS y
ĠS ing
ĠS ong
ĠS ite
ĠS ox
ĠS chol
ĠS pir
ĠS quare
ĠS af
ĠS now
ĠS zent
st one
st itu
st ein
st vÃ¡n
om ed
om ore
om orph
ct ure
am i
am orous
Ġn our
Ġn ick
Ġn avy
Ġn iche
Ġl iber
Ġl ieutenant
ĠC D
ĠC ard
ĠC ome
ĠC ook
ĠC lay
ĠC aves
ĠC atherine
ad y
ad ers
ad ict
ad iad
Ġe lected
Ġe tc
ir ical
ol f
ol ar
ol ished
Ġwas h
Ġwas hed
iv ered
iv iÄ
Ġon to
ly n
ot ry
ot ence
ot rophic
Ġfor g
im ited
im ony
Ġbe aring
Ġas ide
Ġas hes
id er
id ation
ĠM el
ĠM ad
ĠM ain
ĠM os
ĠM ill
ĠM ont
ĠM icrol
ĠM aza
ur s
ur is
ur ring
ĠB on
ĠB ur
ĠB ird
ĠB oard
ĠB anks
ĠB anner
et ic
et us
ĠI ver
ĠI llu
ĠI stvÃ¡n
Ġhe wn
Ġst ab
Ġst ings
Ġst air
Ġst alled
Ġst ood
Ġst ret
Ġst rand
Ġst ability
Ġst ayed
se x
ut ation
ul ate
ul ations
Ġal igned
Ġal leg
Ġal ludes
Ġal tered
Ġal tar
Ġal kyl
ter ies
ĠF o
ĠF re
ĠF le
ĠF ive
ĠF ather
ĠF ifth
ĠF aul
ĠF Ã¶rster
ĠP ir
ĠP ul
ĠP op
ĠP oll
ĠP ass
ĠP erm
ĠP ez
ĠP icture
ĠP asc
ĠP tole
ĠH as
ĠH av
ĠH ab
ĠH ell
ĠH erm
ĠH ang
ĠH amil
ĠH orthy
ĠH uert
ĠH onjou
Ġis n
ra ve
ra ged
ĠJ a
ĠJ es
ĠJ ab
ĠJ ud
ĠJ ournalists
ĠJ oint
ĠN um
ĠN av
ĠN ass
ĠN ature
ĠN ik
ĠN etwork
ĠN DT
ĠN PPL
ĠN adiad
un ner
od ic
od ore
od ox
um in
um ar
Ġwh arves
Ġse ed
Ġse nd
Ġse ction
Ġse ctions
Ġse ats
Ġse emed
ĠG e
ĠG en
ĠG ree
ĠG ene
ĠG iers
ĠG ili
ĠG anes
ĠR o
ĠR on
ĠR ic
ĠR oy
ĠR ook
