{"!":0,"\"":1,"#":2,"$":3,"%":4,"&":5,"'":6,"(":7,")":8,"*":9,"+":10,",":11,"-":12,".":13,"/":14,"0":15,"1":16,"2":17,"3":18,"4":19,"5":20,"6":21,"7":22,"8":23,"9":24,":":25,";":26,"<":27,"=":28,">":29,"?":30,"@":31,"A":32,"B":33,"C":34,"D":35,"E":36,"F":37,"G":38,"H":39,"I":40,"J":41,"K":42,"L":43,"M":44,"N":45,"O":46,"P":47,"Q":48,"R":49,"S":50,"T":51,"U":52,"V":53,"W":54,"X":55,"Y":56,"Z":57,"[":58,"\\":59,"]":60,"^":61,"_":62,"`":63,"a":64,"b":65,"c":66,"d":67,"e":68,"f":69,"g":70,"h":71,"i":72,"j":73,"k":74,"l":75,"m":76,"n":77,"o":78,"p":79,"q":80,"r":81,"s":82,"t":83,"u":84,"v":85,"w":86,"x":87,"y":88,"z":89,"{":90,"|":91,"}":92,"~":93,"¡":94,"¢":95,"£":96,"¤":97,"¥":98,"¦":99,"§":100,"¨":101,"©":102,"ª":103,"«":104,"¬":105,"®":106,"¯":107,"°":108,"±":109,"²":110,"³":111,"´":112,"µ":113,"¶":114,"·":115,"¸":116,"¹":117,"º":118,"»":119,"¼":120,"½":121,"¾":122,"¿":123,"À":124,"Á":125,"Â":126,"Ã":127,"Ä":128,"Å":129,"Æ":130,"Ç":131,"È":132,"É":133,"Ê":134,"Ë":135,"Ì":136,"Í":137,"Î":138,"Ï":139,"Ð":140,"Ñ":141,"Ò":142,"Ó":143,"Ô":144,"Õ":145,"Ö":146,"×":147,"Ø":148,"Ù":149,"Ú":150,"Û":151,"Ü":152,"Ý":153,"Þ":154,"ß":155,"à":156,"á":157,"â":158,"ã":159,"ä":160,"å":161,"æ":162,"ç":163,"è":164,"é":165,"ê":166,"ë":167,"ì":168,"í":169,"î":170,"ï":171,"ð":172,"ñ":173,"ò":174,"ó":175,"ô":176,"õ":177,"ö":178,"÷":179,"ø":180,"ù":181,"ú":182,"û":183,"ü":184,"ý":185,"þ":186,"ÿ":187,"Ā":188,"ā":189,"Ă":190,"ă":191,"Ą":192,"ą":193,"Ć":194,"ć":195,"Ĉ":196,"ĉ":197,"Ċ":198,"ċ":199,"Č":200,"č":201,"Ď":202,"ď":203,"Đ":204,"đ":205,"Ē":206,"ē":207,"Ĕ":208,"ĕ":209,"Ė":210,"ė":211,"Ę":212,"ę":213,"Ě":214,"ě":215,"Ĝ":216,"ĝ":217,"Ğ":218,"ğ":219,"Ġ":220,"ġ":221,"Ģ":222,"ģ":223,"Ĥ":224,"ĥ":225,"Ħ":226,"ħ":227,"Ĩ":228,"ĩ":229,"Ī":230,"ī":231,"Ĭ":232,"ĭ":233,"Į":234,"į":235,"İ":236,"ı":237,"Ĳ":238,"ĳ":239,"Ĵ":240,"ĵ":241,"Ķ":242,"ķ":243,"ĸ":244,"Ĺ":245,"ĺ":246,"Ļ":247,"ļ":248,"Ľ":249,"ľ":250,"Ŀ":251,"ŀ":252,"Ł":253,"ł":254,"Ń":255,"Ġt":256,"he":257,"Ġa":258,"in":259,"Ġthe":260,"er":261,"on":262,"Ġ,":263,"re":264,"Ġs":265,"ed":266,"Ġo":267,"Ġw":268,"nd":269,"at":270,"Ġ.":271,"or":272,"it":273,"Ġc":274,"Ġf":275,"en":276,"is":277,"Ġof":278,"es":279,"ar":280,"Ġp":281,"an":282,"al":283,"Ġin":284,"ing":285,"Ġb":286,"Ġand":287,"as":288,"Ġd":289,"ic":290,"Ġto":291,"ro":292,"Ġm":293,"Ġh":294,"ion":295,"ĠT":296,"Ġre":297,"le":298,"ou":299,"Ġ=":300,"Ġth":301,"Ġg":302,"ent":303,"ĠA":304,"il":305,"ĠS":306,"Ġ@":307,"Ġ1":308,"st":309,"el":310,"om":311,"ct":312,"ĠĊ":313,"am":314,"Ġn":315,"Ġl":316,"ĠC":317,"Ġ\"":318,"ad":319,"Ġe":320,"ir":321,"ol":322,"Ġwas":323,"ĠThe":324,"iv":325,"Ġon":326,"ly":327,"ot":328,"Ġfor":329,"im":330,"-@":331,"Ġ@-@":332,"Ġbe":333,"ith":334,"ow":335,"ig":336,"ac":337,"Ġas":338,"Ġ'":339,"id":340,"ĠM":341,"ur":342,"ation":343,"Ġwith":344,"ay":345,"ĠB":346,"et":347,"ĠI":348,"Ġhe":349,"Ġst":350,"se":351,"ut":352,"ul":353,"Ġthat":354,"Ġ2":355,"Ġal":356,"ter":357,"ĠF":358,"Ġde":359,"ĠP":360,"ce":361,"ver":362,"ĠH":363,"Ġis":364,"ra":365,"ĠJ":366,"ĠN":367,"un":368,"od":369,"um":370,"Ġwh":371,"Ġse":372,"Ġby":373,"ĠG":374,"ĠR":375,"Ġ19":376,"Ġhis":377,"av":378,"Ġan":379,"us":380,"Ġat":381,"Ġcon":382,"ĠD":383,"ch":384,"th":385,"em":386,"Ġ)":387,"Ġ(":388,"ers":389,"ies":390,"ĠE":391,"ĠW":392,"ag":393,"and":394,"her":395,"rom":396,"ĠL":397,"ord":398,"ain":399,"pe":400,"res":401,"ere":402,"ri":403,"ts":404,"Ġ20":405,"Ġcom":406,"Ġwere":407,"Ġpl":408,"oc":409,"Ġpro":410,"Ġit":411,"os":412,"pt":413,"if":414,"ate":415,"all":416,"ame":417,"igh":418,"Ġfrom":419,"ew":420,"ld":421,"Ġor":422,"ist":423,"up":424,"ill":425,"ore":426,"ated":427,"ity":428,"Ġare":429,"Ġsh":430,"ĠIn":431,"ess":432,"ĠO":433,"ru":434,"ort":435,"ich":436,"est":437,"Ġv":438,"ian":439,"ant":440,"ab":441,"ard":442,"Ġr":443,"red":444,"Ġch":445,"ip":446,"qu":447,"op":448,"Ġâ":449,"ĠâĢ":450,"gh":451,"ive":452,"own":453,"ĠU":454,"ia":455,"und":456,"art":457,"ack":458,"lu":459,"ak":460,"Ġgod":461,"ial":462,"Ġex":463,"Ġle":464,"Ġwhich":465,"ap":466,"ment":467,"ost":468,"ber":469,"Ġsu":470,"Ġ;":471,"ction":472,"our":473,"Ġher":474,"ong":475,"ear":476,"Ġy":477,"ĠK":478,"ĠSt":479,"ine":480,"Ġhad":481,"ight":482,"ĠV":483,"Ġnot":484,"ov":485,"ave":486,"oin":487,"ther":488,"Ġk":489,"ition":490,"ust":491,"ary":492,"Ġrec":493,"Ġplay":494,"og":495,"ĠCh":496,"Ġtheir":497,"Ġ200":498,"ide":499,"ordan":500,"Ġwor":501,"ĠJordan":502,"ĠâĢĵ":503,"ast":504,"so":505,"oll":506,"pl":507,"ie":508,"ran":509,"ell":510,"rit":511,"ign":512,"ey":513,"Ġalso":514,"ime":515,"ĠHe":516,"Ġar":517,"Ġper":518,"ue":519,"ory":520,"ould":521,"Ġun":522,"ff":523,"Ġhas":524,"fter":525,"Ġro":526,"ft":527,"Ġair":528,"Ġwho":529,"ure":530,"Ġ3":531,"00":532,"old":533,"Ġ18":534,"wo":535,"ities":536,"cc":537,"ect":538,"ge":539,"Ġinc":540,"ally":541,"oun":542,"ations":543,".@":544,"Ġ@.@":545,"Ġte":546,"Ġap":547,"Ġ4":548,"Ġcont":549,"ous":550,"ason":551,"Ġone":552,"Ġ201":553,"per":554,"Ġab":555,"ph":556,"Ġint":557,"ass":558,"irst":559,"ome":560,"iz":561,"Ġall":562,"Ġim":563,"Ġsc":564,"ock":565,"Ġgods":566,"Ġtwo":567,"Ġbut":568,"du":569,"ok":570,"ish":571,"Ġwhe":572,"Ġits":573,"mer":574,"port":575,"ree":576,"ater":577,"out":578,"ach":579,"hed":580,"Ġhave":581,"act":582,"ond":583,"Ġdes":584,"ict":585,"Ġ199":586,"Ġen":587,"Ġfirst":588,"ance":589,"Ġdis":590,"Ġother":591,"Ġ5":592,"Ġgame":593,"erv":594,"Ġyear":595,"Ġag":596,"Ġoff":597,"ely":598,"les":599,"als":600,"ough":601,"Ġcl":602,"Ġman":603,"te":604,"Ġthis":605,"ub":606,"ĠTown":607,"ade":608,"ull":609,"ced":610,"ry":611,"Ġshe":612,"ron":613,"ence":614,"uring":615,"send":616,"ĠTownsend":617,"Ġj":618,"Ġpart":619,"are":620,"bum":621,"Ġalbum":622,"ress":623,"ile":624,"ugh":625,"ical":626,"ents":627,"over":628,"vi":629,"Ġup":630,"Ġreg":631,"ult":632,"Ġseason":633,"age":634,"Ġcomp":635,"lud":636,"ĠTh":637,"ire":638,"ice":639,"Ġtime":640,"Ġover":641,"Ġmore":642,"Ġ:":643,"raft":644,",@":645,"ĠY":646,"Ġad":647,"ild":648,"Ġ@,@":649,"ace":650,"reat":651,"orm":652,"Ġne":653,"ower":654,"Ġafter":655,"gy":656,"ĠAl":657,"Ġthey":658,"ings":659,"Ġbeen":660,"wn":661,"Ġres":662,"Ġbec":663,"Ġrecord":664,"Ġthem":665,"Ġout":666,"ĠEgy":667,"ĠEgypt":668,"hip":669,"ular":670,"ĠRe":671,"Ġcomm":672,"Ġbas":673,"ĠSh":674,"urn":675,"Ġspe":676,"ark":677,"ied":678,"Ġfl":679,"Ġpre":680,"ĠFey":681,"Ġus":682,"ited":683,"ĠIt":684,"Ġtr":685,"Ġrem":686,"oth":687,"Ġhim":688,"ames":689,"ĠAr":690,"ans":691,"Ġnew":692,"ck":693,"ions":694,"Ġteam":695,"ud":696,"Ġ6":697,"Ġund":698,"ors":699,"Ġgro":700,"ib":701,"ĠUn":702,"ke":703,"use":704,"Ġfin":705,"Ġrel":706,"Ġev":707,"ky":708,"rough":709,"Ġform":710,"Ġwork":711,"Ġinclud":712,"Ġact":713,"ĠDe":714,"Ġrep":715,"able":716,"Ġ7":717,"ates":718,"Ġmost":719,"ound":720,"Ġcons":721,"Ġ8":722,"ite":723,"Ġfour":724,"Ġonly":725,"vel":726,"ward":727,"ican":728,"Ġret":729,"tle":730,"ĠZ":731,"Ġsp":732,"ĠSe":733,"Ġchar":734,"Ġunder":735,"ten":736,"Ġinter":737,"ick":738,"Ġinto":739,"Ġsy":740,"form":741,"ose":742,"Ġcent":743,"ubl":744,"craft":745,"fer":746,"ning":747,"Ġass":748,"cond":749,"Ġwould":750,"Ġthree":751,"gan":752,"Ġcar":753,"Ġpr":754,"ĠAn":755,"ted":756,"Ġdeities":757,"Ġagain":758,"ind":759,"ered":760,"Ġbu":761,"rib":762,"ĠEgyptian":763,"ĠShe":764,"resent":765,"ject":766,"Ġdoll":767,"Ġduring":768,"Ġgold":769,"ational":770,"ember":771,"ĠOn":772,"Ġdollar":773,"ces":774,"oy":775,"Ġsup":776,"iss":777,"Ġmade":778,"Ġdec":779,"Ġprodu":780,"ern":781,"leas":782,"ĠNB":783,"ons":784,"Ġpoin":785,"ĠAs":786,"ook":787,"ener":788,"Ġthrough":789,"elf":790,"Ġatt":791,"ix":792,"ral":793,"we":794,"round":795,"Ġear":796,"ĠGA":797,"Ġfe":798,"Ġbeing":799,"ail":800,"ved":801,"Ġ9":802,"ĠNew":803,"ake":804,"Ġaircraft":805,"Ġacc":806,"outh":807,"Ġhist":808,"iva":809,"ters":810,"way":811,"Ġdiv":812,"Ġkn":813,"air":814,"hes":815,"Ġam":816,"Ġso":817,"Ġthan":818,"Ġdep":819,"ollow":820,"ĠShiva":821,"end":822,"Ġoper":823,"orth":824,"ens":825,"Ġme":826,"ĠTru":827,"Ġend":828,"cial":829,"oh":830,"Ġob":831,"Ġwrit":832,"lect":833,"Ġmany":834,"ĠNBA":835,"jill":836,"one":837,"Ġser":838,"Ġsome":839,"Ġmet":840,"Ġbet":841,"Ġsecond":842,"Ġwhen":843,"ĠTrujill":844,"eb":845,"pp":846,"Ġpol":847,"Ġboth":848,"Ġno":849,"ific":850,"Ġappe":851,"ĠTrujillo":852,"land":853,"ĠAt":854,"other":855,"arg":856,"Ġind":857,"Ġreleas":858,"ets":859,"Ġabout":860,"ee":861,"Ġthese":862,"ork":863,"Ġnum":864,"tern":865,"ublic":866,"erm":867,"Ġsur":868,"Ġcan":869,"Ġgo":870,"Ġlater":871,"ween":872,"ired":873,"ious":874,"ating":875,"Ġcoin":876,"Ġcould":877,"Ġapp":878,"ah":879,"ton":880,"ve":881,"vol":882,"ived":883,"Ġsuch":884,"Ġarm":885,"ount":886,"az":887,"led":888,"Ġco":889,"ise":890,"ash":891,"Ġmin":892,"Ġmain":893,"Ġship":894,"Ġwhere":895,"Ġcharact":896,"der":897,"eop":898,"ren":899,"Ġsm":900,"ath":901,"ism":902,"ished":903,"Ġmon":904,"pect":905,"Ġsub":906,"ĠThis":907,"Ġremain":908,"Ġseries":909,"aj":910,"Ġwell":911,"Ġbro":912,"Ġbel":913,"Ġsever":914,"alled":915,"Ġdesign":916,"dition":917,"Ġfollow":918,"oci":919,"fore":920,"ug":921,"ÃŃ":922,"orn":923,"ittle":924,"Ġpos":925,"Ġwhile":926,"ĠRock":927,"ĠVal":928,"rans":929,"Ġsa":930,"Ġown":931,"Ġback":932,"Ġmus":933,"amp":934,"overn":935,"Ġused":936,"ever":937,"ike":938,"Ġtra":939,"ale":940,"Ġrece":941,"Ġ198":942,"Ġthere":943,"ather":944,"ics":945,"Ġhum":946,"ily":947,"Ġhead":948,"ĠJoh":949,"Ġbetween":950,"Ġqu":951,"Ġph":952,"Ġpers":953,"Ġdo":954,"Ġmov":955,"ĠAust":956,"ĠAfter":957,"str":958,"omin":959,"ĠCom":960,"imes":961,"ĠAll":962,"Ġagainst":963,"lay":964,"ures":965,"Ġhigh":966,"ional":967,"ilm":968,"Ġlead":969,"Ġoffic":970,"iel":971,"ty":972,"ual":973,"Ġtrans":974,"igin":975,"ĠMay":976,"Ġplan":977,"Ġent":978,"ision":979,"ang":980,"rol":981,"Ġgames":982,"Ġele":983,"Ġ192":984,"ctions":985,"Ġdisc":986,"Ġsmall":987,"ĠJohn":988,"ank":989,"Ġgener":990,"ĠCol":991,"ung":992,"ized":993,"Ġimp":994,"velop":995,"ared":996,"bers":997,"mb":998,"ob":999,"ued":1000,"Ġac":1001,"Ġcare":1002,"arch":1003,"Ġpower":1004,"Ġday":1005,"ilot":1006,"owever":1007,"ĠBull":1008,"Ġdef":1009,"Ġdem":1010,"ria":1011,"ments":1012,"Ġseveral":1013,"ting":1014,"Ġsign":1015,"Ġserv":1016,"ised":1017,"Ġbl":1018,"Ġgu":1019,"Ġbegan":1020,"Ġdevelop":1021,"Ġany":1022,"though":1023,"ife":1024,"000":1025,"Ġbecame":1026,"Ġrepresent":1027,"Ġreturn":1028,"pr":1029,"ured":1030,"Ġthen":1031,"ident":1032,"Ġperform":1033,"oot":1034,"tain":1035,"Ġmem":1036,"Ġhand":1037,"Ġeach":1038,"ury":1039,"Ġiss":1040,"Ġworld":1041,"Ġyears":1042,"view":1043,"Ġpoints":1044,"Ġhistory":1045,"Ġknown":1046,"por":1047,"Ġwin":1048,"ists":1049,"Ġdid":1050,"Ġdif":1051,"Ġloc":1052,"Ġbefore":1053,"Ġ191":1054,"aves":1055,"osed":1056,"ĠValky":1057,"ball":1058,"Ġest":1059,"Ġ000":1060,"Ġcalled":1061,"ĠBl":1062,"umb":1063,"Ġorigin":1064,"ards":1065,"Ġ186":1066,"Ġincluding":1067,"AA":1068,"man":1069,"Ġra":1070,"Ġcre":1071,"ĠAm":1072,"omen":1073,"cept":1074,"Ġpartic":1075,"Ġspec":1076,"eople":1077,"Ġcareer":1078,"cess":1079,"Ġinf":1080,"ĠAir":1081,"ĠBe":1082,"ety":1083,"aged":1084,"tend":1085,"Ġsyn":1086,"son":1087,"Ġaer":1088,"aton":1089,"Ġcrit":1090,"Ġfig":1091,"Ġfilm":1092,"Ġ15":1093,"ĠInd":1094,"Ġstar":1095,"Ġstru":1096,"Ġstart":1097,"Ġalong":1098,"Ġann":1099,"Ġleft":1100,"Ġplayed":1101,"Ġgroup":1102,"Ġnumber":1103,"Ġmusic":1104,"ez":1105,"ket":1106,"pen":1107,"side":1108,"Ġmy":1109,"ility":1110,"lying":1111,"ĠEaton":1112,"ĠLittle":1113,"ĠâĢĶ":1114,"Ġcontin":1115,"Ġdesc":1116,"ield":1117,"ĠValkyria":1118,"aw":1119,"ier":1120,"Ġtem":1121,"hen":1122,"Ġsame":1123,"Ġwar":1124,"Ġlong":1125,"ader":1126,"ird":1127,"ute":1128,"raph":1129,"ĠWh":1130,"ĠLe":1131,"ĠKing":1132,"ccess":1133,"oung":1134,"ilding":1135,"ĠBulls":1136,"reas":1137,"its":1138,"Ġpres":1139,"Ġthough":1140,"ilt":1141,"stru":1142,"Ġlike":1143,"ĠCro":1144,"ively":1145,"ided":1146,"avy":1147,"ĠUnited":1148,"apt":1149,"co":1150,"ood":1151,"ped":1152,"sen":1153,"ined":1154,"ince":1155,"reak":1156,"ative":1157,"ĠAmer":1158,"ĠBlu":1159,"ĠNo":1160,"Ġconc":1161,"ĠEn":1162,"anding":1163,"Ġshow":1164,"Ġdivine":1165,"Ġreleased":1166,"Ġcharacter":1167,"Ġfollowing":1168,"ful":1169,"gg":1170,"io":1171,"off":1172,"ues":1173,"xt":1174,"Ġsong":1175,"Ġpur":1176,"Ġport":1177,"Ġpilot":1178,"Ġgiv":1179,"ĠIs":1180,"ution":1181,"ĠPh":1182,"ĠJack":1183,"Ġ194":1184,"ĠWar":1185,"Ġvar":1186,"Ġtrad":1187,"Ġbelie":1188,"Ġreceived":1189,"serv":1190,"vent":1191,"int":1192,"Ġband":1193,"Ġdist":1194,"Ġmil":1195,"ĠBark":1196,"ract":1197,"ĠNov":1198,"Ġseen":1199,"ĠChar":1200,"irect":1201,"ajor":1202,"Ġperson":1203,"self":1204,"Ġ0":1205,"ines":1206,"Ġfound":1207,"Ġpublic":1208,"Ġgovern":1209,"Ġ10":1210,"ĠCon":1211,"ĠThey":1212,"ĠII":1213,"Ġstate":1214,"Ġsuccess":1215,"Ġfeat":1216,"Ġsaid":1217,"HL":1218,"ged":1219,"ool":1220,"ring":1221,"sp":1222,"ss":1223,"Ġcol":1224,"Ġ13":1225,"Ġ17":1226,"olog":1227,"Ġproject":1228,"Ġexp":1229,"Ġplayer":1230,"Ġsupport":1231,"lid":1232,"ven":1233,"yl":1234,"Ġver":1235,"Ġuse":1236,"ins":1237,"Ġdam":1238,"Ġdown":1239,"ĠCull":1240,"irc":1241,"Ġstat":1242,"uth":1243,"ĠPar":1244,"ement":1245,"Ġright":1246,"ĠUK":1247,"Ġ30":1248,"Ġconsid":1249,"Ġearly":1250,"Ġoperations":1251,"Ġappear":1252,"Ġappro":1253,"ĠCullen":1254,"ax":1255,"ause":1256,"con":1257,"uch":1258,"Ġ$":1259,"oring":1260,"ann":1261,"ange":1262,"Ġthird":1263,"ĠSouth":1264,"ĠCar":1265,"ĠMader":1266,"Ġcomple":1267,"ĠYork":1268,"Ġrelig":1269,"Ġactiv":1270,"ĠColumb":1271,"Ġdescrib":1272,"ĠBlue":1273,"ĠBarker":1274,"ĠNovember":1275,"AS":1276,"ually":1277,"Ġfam":1278,"Ġprom":1279,"Ġbat":1280,"icles":1281,"Ġreview":1282,"Ġ12":1283,"ĠFI":1284,"une":1285,"Ġimport":1286,"Ġclass":1287,"ĠMadero":1288,"action":1289,"Ġset":1290,"edy":1291,"eder":1292,"Ġwe":1293,"Ġpop":1294,"Ġtook":1295,"Ġmod":1296,"Ġreal":1297,"ĠAd":1298,"Ġname":1299,"ĠBrit":1300,"ĠFern":1301,"odrom":1302,"Ġanother":1303,"Ġplace":1304,"Ġprot":1305,"anta":1306,"quad":1307,"ograph":1308,"Ġ2011":1309,"Ġeng":1310,"ĠComm":1311,"layer":1312,"senal":1313,"ĠJackets":1314,"ĠFernand":1315,"ple":1316,"ship":1317,"vin":1318,"itary":1319,"Ġcaves":1320,"ĠApr":1321,"Ġ11":1322,"Ġnear":1323,"Ġlife":1324,"Ġem":1325,"Ġeff":1326,"iver":1327,"Ġ193":1328,"ague":1329,"ried":1330,"aking":1331,"Ġaddition":1332,"ible":1333,"ĠFernandez":1334,"ĠApril":1335,"cl":1336,"dom":1337,"Ġaround":1338,"Ġwomen":1339,"Ġfive":1340,"enn":1341,"Ġpeople":1342,"ase":1343,"Ġdet":1344,"Ġmiss":1345,"Ġrequ":1346,"Ġgun":1347,"Ġlast":1348,"Ġever":1349,"ĠThere":1350,"ĠFin":1351,"ĠFor":1352,"ored":1353,"ĠStates":1354,"ove":1355,"Ġart":1356,"Ġrole":1357,"Ġobserv":1358,"Ġinflu":1359,"ble":1360,"ep":1361,"ient":1362,"ober":1363,"ray":1364,"Ġcirc":1365,"Ġft":1366,"Ġfather":1367,"Ġinst":1368,"Ġhold":1369,"amed":1370,"Ġep":1371,"Ġhel":1372,"ĠNorth":1373,"Ġorder":1374,"Ġvi":1375,"ĠChron":1376,"viation":1377,"wards":1378,"Ġhuman":1379,"ael":1380,"ination":1381,"Ġsing":1382,"Ġway":1383,"atory":1384,"Ġfem":1385,"ister":1386,"Ġoften":1387,"alf":1388,"Ġinvol":1389,"Ġdue":1390,"ently":1391,"omet":1392,"Ġnov":1393,"Ġbeh":1394,"aced":1395,"Ġstated":1396,"Ġalthough":1397,"chool":1398,"ploy":1399,"Ġcontrol":1400,"Ġregime":1401,"pping":1402,"ĠColumbus":1403,"ĠChronicles":1404,"Ġnovel":1405,"ling":1406,"los":1407,"Ġ/":1408,"ina":1409,"read":1410,"ata":1411,"Ġflying":1412,"Ġgreat":1413,"ĠSc":1414,"Ġled":1415,"ĠMe":1416,"Ġwithin":1417,"ĠFl":1418,"ĠNHL":1419,"ĠGu":1420,"Ġcoins":1421,"ĠBlack":1422,"ĠBritish":1423,"ox":1424,"Ġturn":1425,"Ġsim":1426,"Ġsix":1427,"itu":1428,"Ġcer":1429,"eng":1430,"ask":1431,"Ġmajor":1432,"Ġgre":1433,"ĠCity":1434,"ivil":1435,"ulf":1436,"ĠFeb":1437,"ages":1438,"ording":1439,"Ġcommer":1440,"ruary":1441,"Ġchild":1442,"ĠUran":1443,"ĠStra":1444,"Ġ2008":1445,"Ġ2010":1446,"Ġbased":1447,"Ġevents":1448,"Ġproduced":1449,"Ġdiffer":1450,"Ġparticular":1451,"Ġaerodrom":1452,"Ġdescribed":1453,"ĠFebruary":1454,"iod":1455,"van":1456,"yd":1457,"ature":1458,"orld":1459,"Ġcave":1460,"Ġpar":1461,"Ġbook":1462,"Ġmay":1463,"Ġlim":1464,"ĠThese":1465,"Ġstory":1466,"ĠFran":1467,"ĠJune":1468,"ified":1469,"abl":1470,"ogue":1471,"Ġ2009":1472,"ples":1473,"Ġincreas":1474,"ront":1475,"Ġjust":1476,"Ġbuilt":1477,"ĠKingdom":1478,"ĠAmerican":1479,"Ġfamily":1480,"Ġimportant":1481,"ĠUrania":1482,"ai":1483,"ik":1484,"pite":1485,"rist":1486,"Ġes":1487,"Ġterm":1488,"Ġsl":1489,"Ġsol":1490,"Ġcr":1491,"Ġcover":1492,"arian":1493,"Ġdirect":1494,"rop":1495,"Ġmuch":1496,"Ġref":1497,"Ġequ":1498,"ides":1499,"Ġstr":1500,"Ġstud":1501,"ĠHis":1502,"ĠHowever":1503,"ĠJan":1504,"ĠWorld":1505,"ained":1506,"Ġallow":1507,"vious":1508,"Ġnext":1509,"Ġresp":1510,"Ġcommun":1511,"ĠArk":1512,"Ġmembers":1513,"Ġestabl":1514,"uthor":1515,"ĠFinals":1516,"field":1517,"oat":1518,"til":1519,"uary":1520,"ining":1521,"ator":1522,"Ġcount":1523,"Ġfac":1524,"arge":1525,"Ġpost":1526,"Ġpass":1527,"Ġpresent":1528,"ross":1529,"Ġmake":1530,"Ġlos":1531,"Ġlist":1532,"semb":1533,"ĠWith":1534,"Ġprov":1535,"ights":1536,"ĠOr":1537,"Ġleg":1538,"Ġplayoff":1539,"Ġ2006":1540,"Ġresult":1541,"Ġhimself":1542,"Ġfinal":1543,"Ġeven":1544,"Ġprim":1545,"Ġbuilding":1546,"Ġdepict":1547,"Ġoriginal":1548,"Ġstruck":1549,"ketball":1550,"ĠPhil":1551,"ken":1552,"ls":1553,"line":1554,"ne":1555,"ves":1556,"yp":1557,"ink":1558,"Ġopen":1559,"ati":1560,"Ġcreat":1561,"ara":1562,"Ġreaction":1563,"oman":1564,"Ġnamed":1565,"ached":1566,"ural":1567,"Ġheld":1568,"ulation":1569,"ĠFair":1570,"pted":1571,"ourt":1572,"Ġuntil":1573,"ize":1574,"Ġcommand":1575,"Ġprevious":1576,"ĠDevin":1577,"Ġthroughout":1578,"ÃŃn":1579,"ĠAustral":1580,"struction":1581,"Ġmilitary":1582,"Ġconsidered":1583,"ĠFIT":1584,"quadron":1585,"au":1586,"dess":1587,"my":1588,"ner":1589,"ram":1590,"vati":1591,"ys":1592,"Ġaver":1593,"ret":1594,"Ġsouth":1595,"Ġwon":1596,"atch":1597,"ica":1598,"ico":1599,"ically":1600,"Ġhalf":1601,"ĠTe":1602,"ĠAug":1603,"ĠSlayer":1604,"amb":1605,"Ġlarge":1606,"Ġeast":1607,"Ġdeal":1608,"Ġdeath":1609,"ĠPro":1610,"ĠHer":1611,"aving":1612,"ĠDes":1613,"agogue":1614,"Ġorgan":1615,"illion":1616,"Ġshot":1617,"lub":1618,"Ġgoddess":1619,"Ġplayers":1620,"Ġscoring":1621,"ĠYoung":1622,"ĠRep":1623,"ĠAss":1624,"Ġattem":1625,"Ġmetal":1626,"ĠAtl":1627,"Ġreturned":1628,"ĠBlackie":1629,"ĠStrapping":1630,"ĠAugust":1631,"NL":1632,"Ġel":1633,"Ġtimes":1634,"hest":1635,"Ġsince":1636,"ars":1637,"Ġdel":1638,"Ġtow":1639,"row":1640,"ouse":1641,"Ġthose":1642,"ilar":1643,"ĠSNL":1644,"stem":1645,"elph":1646,"Ġlive":1647,"Ġlarg":1648,"adelph":1649,"ives":1650,"Ġdeity":1651,"ĠJew":1652,"ĠJames":1653,"used":1654,"ĠEm":1655,"agre":1656,"ĠLlos":1657,"ption":1658,"ĠUS":1659,"ĠVarg":1660,"Ġships":1661,"Ġmonth":1662,"Ġleading":1663,"Ġtradition":1664,"ĠParvati":1665,"Ġcommercial":1666,"adelphia":1667,"ĠLlosa":1668,"ĠVargas":1669,"Ġtro":1670,"Ġauthor":1671,"Ġsent":1672,"ately":1673,"Ġinit":1674,"Ġgr":1675,"ention":1676,"ctober":1677,"Ġnow":1678,"Ġnational":1679,"Ġformer":1680,"ĠHung":1681,"ĠGame":1682,"aven":1683,"Ġattend":1684,"Ġconf":1685,"ĠDar":1686,"ĠLad":1687,"Ġcomedy":1688,"Ġord":1689,"isted":1690,"ĠOctober":1691,"Ġ2012":1692,"Ġcompet":1693,"Ġassass":1694,"Ġcarb":1695,"Ġpoint":1696,"Ġattack":1697,"Ġpolice":1698,"Ġcontinued":1699,"ĠWhile":1700,"Ġgovernment":1701,"ASP":1702,"Ġsingle":1703,"ĠArkans":1704,"fic":1705,"ium":1706,"sion":1707,"ti":1708,"Ġ[":1709,"Ġ]":1710,"ators":1711,"Ġcor":1712,"Ġcity":1713,"Ġcap":1714,"Ġfore":1715,"Ġfoot":1716,"ense":1717,"Ġput":1718,"Ġbr":1719,"Ġdest":1720,"rote":1721,"ĠTr":1722,"Ġ14":1723,"Ġla":1724,"iron":1725,"ĠMan":1726,"ĠMarch":1727,"Ġsty":1728,"Ġ25":1729,"ĠRa":1730,"Ġ196":1731,"ĠDÃŃ":1732,"ĠDomin":1733,"Ġcomb":1734,"istic":1735,"ially":1736,"Ġlevel":1737,"play":1738,"ranch":1739,"Ġperiod":1740,"Ġround":1741,"Ġrock":1742,"Ġjoin":1743,"Ġneed":1744,"Ġsystem":1745,"ĠEgyptians":1746,"ission":1747,"ociety":1748,"Ġofficers":1749,"Ġfigure":1750,"Ġmyth":1751,"Ġdifferent":1752,"Ġcountry":1753,"ĠArkansas":1754,"ĠDÃŃaz":1755,"cy":1756,"ness":1757,"oor":1758,"ving":1759,"ym":1760,"Ġif":1761,"Ġsk":1762,"Ġself":1763,"Ġocc":1764,"Ġwrote":1765,"ither":1766,"itical":1767,"Ġcame":1768,"Ġfun":1769,"ales":1770,"Ġhowever":1771,"Ġreag":1772,"Ġglid":1773,"Ġ16":1774,"Ġlate":1775,"Ġlab":1776,"Ġline":1777,"ĠMich":1778,"ĠMint":1779,"sequ":1780,"Ġprof":1781,"Ġshr":1782,"ĠChrist":1783,"Ġ2007":1784,"Ġ185":1785,"ected":1786,"ĠZagre":1787,"Ġhistor":1788,"Ġappeared":1789,"Ġposition":1790,"Ġphot":1791,"Ġdevelopment":1792,"ports":1793,"Ġsynagogue":1794,"Ġgiven":1795,"Ġpopular":1796,"Ġfemale":1797,"ĠJanuary":1798,"ĠDominican":1799,"ĠZagreb":1800,"eor":1801,"ead":1802,"mber":1803,"pos":1804,"yn":1805,"Ġide":1806,"Ġtit":1807,"Ġsomet":1808,"Ġopp":1809,"Ġcal":1810,"Ġcult":1811,"ene":1812,"ests":1813,"Ġbest":1814,"Ġden":1815,"Ġhost":1816,"Ġhour":1817,"Ġrest":1818,"ĠAnd":1819,"Ġless":1820,"ivate":1821,"eter":1822,"Ġstill":1823,"ĠJu":1824,"Ġ195":1825,"ĠDuring":1826,"ĠWASP":1827,"pend":1828,"Ġarea":1829,"akes":1830,"Ġrecorded":1831,"Ġtrack":1832,"Ġtrade":1833,"Ġgrow":1834,"lected":1835,"volution":1836,"Ġlocal":1837,"ĠCarol":1838,"ĠFITs":1839,"ĠAtlanta":1840,"VP":1841,"aim":1842,"iers":1843,"lan":1844,"med":1845,"vision":1846,"ying":1847,"Ġtake":1848,"iness":1849,"Ġwill":1850,"Ġfict":1851,"Ġfront":1852,"enced":1853,"ices":1854,"Ġmen":1855,"Ġrepl":1856,"ilver":1857,"Ġlight":1858,"iving":1859,"ĠMVP":1860,"ĠBu":1861,"ĠBy":1862,"Ġstand":1863,"Ġ21":1864,"Ġ24":1865,"ĠGre":1866,"ĠRAA":1867,"Ġ197":1868,"ĠEu":1869,"ptember":1870,"Ġkm":1871,"Ġalbums":1872,"hips":1873,"Ġcommon":1874,"Ġspecial":1875,"Ġinclude":1876,"ĠSeptember":1877,"ways":1878,"Ġindust":1879,"Ġgoal":1880,"ociation":1881,"ampions":1882,"ĠCroat":1883,"ĠEng":1884,"Ġpilots":1885,"Ġbelieved":1886,"Ġbehind":1887,"ĠPhiladelphia":1888,"Ġtower":1889,"ĠJewish":1890,"Ġcarbon":1891,"ĠRAAF":1892,"ford":1893,"get":1894,"gress":1895,"hib":1896,"ior":1897,"iber":1898,"me":1899,"ope":1900,"par":1901,"rican":1902,"ype":1903,"Ġav":1904,"Ġsulf":1905,"Ġold":1906,"iter":1907,"iting":1908,"Ġfree":1909,"Ġpat":1910,"ana":1911,"ances":1912,"Ġdra":1913,"Ġdraft":1914,"Ġmillion":1915,"ĠTower":1916,"ĠAct":1917,"ĠSome":1918,"elt":1919,"omb":1920,"cted":1921,"Ġnorth":1922,"Ġland":1923,"Ġforces":1924,"ĠMost":1925,"ĠBar":1926,"Ġ23":1927,"Ġisland":1928,"ĠNavy":1929,"Ġsee":1930,"ĠEr":1931,"Ġvoc":1932,"ĠUp":1933,"Ġleague":1934,"aps":1935,"Ġsugg":1936,"ĠStar":1937,"Ġworship":1938,"Ġ44":1939,"Ġcontract":1940,"Ġ2013":1941,"Ġoutside":1942,"Ġbasketball":1943,"ĠUnion":1944,"ĠZr":1945,"ĠZap":1946,"Ġcentral":1947,"Ġdollars":1948,"Ġamong":1949,"Ġpolitical":1950,"Ġcharacters":1951,"Ġblock":1952,"Ġdeveloped":1953,"Ġcritic":1954,"ederal":1955,"ape":1956,"gin":1957,"ned":1958,"tal":1959,"win":1960,"work":1961,"yi":1962,"Ġ%":1963,"Ġsay":1964,"atter":1965,"Ġfoc":1966,"Ġfru":1967,"Ġfact":1968,"aria":1969,"Ġbreak":1970,"astern":1971,"Ġdi":1972,"Ġmater":1973,"Ġmark":1974,"Ġhig":1975,"Ġreb":1976,"ĠAb":1977,"ĠSen":1978,"els":1979,"ival":1980,"aces":1981,"ĠMc":1982,"urther":1983,"ĠBro":1984,"ĠNational":1985,"ĠWee":1986,"ĠWhen":1987,"ĠLong":1988,"Ġshown":1989,"Ġshould":1990,"Ġval":1991,"Ġrun":1992,"ops":1993,"Ġsuff":1994,"ief":1995,"Ġabove":1996,"Ġregular":1997,"Ġbecause":1998,"ĠItal":1999,"ĠDece":2000,"Ġcentury":2001,"ferred":2002,"oyal":2003,"Ġproduction":2004,"ended":2005,"Ġwritten":2006,"Ġarms":2007,"Ġremained":2008,"Ġbroken":2009,"Ġposs":2010,"Ġmoved":2011,"Ġgeneral":2012,"Ġsignific":2013,"Ġrepresented":2014,"Ġannoun":2015,"Ġdamaged":2016,"Ġreligious":2017,"Ġaerodromes":2018,"ÃŃnyi":2019,"ĠAustralia":2020,"ĠHungarian":2021,"Ġstyle":2022,"ĠMichael":2023,"ĠZrÃŃnyi":2024,"augh":2025,"for":2026,"ks":2027,"ps":2028,"ris":2029,"ãģ":2030,"Ġed":2031,"Ġaward":2032,"Ġaway":2033,"Ġaviation":2034,"Ġsold":2035,"atic":2036,"Ġcur":2037,"Ġcivil":2038,"Ġfew":2039,"ences":2040,"Ġpra":2041,"rope":2042,"Ġmar":2043,"Ġmid":2044,"Ġmix":2045,"Ġmother":2046,"Ġren":2047,"ley":2048,"enth":2049,"ĠAcc":2050,"ĠSquadron":2051,"Ġlow":2052,"ĠCent":2053,"ott":2054,"Ġaspect":2055,"ĠPer":2056,"ĠPort":2057,"ĠGener":2058,"ĠGovern":2059,"ĠRich":2060,"ĠEd":2061,"ago":2062,"Ġprocess":2063,"ians":2064,"Ġexper":2065,"ĠHeaven":2066,"Ġ31":2067,"Ġ2015":2068,"Ġnever":2069,"ĠAlthough":2070,"Ġbecome":2071,"Ġflight":2072,"ĠArsenal":2073,"Ġevent":2074,"Ġearl":2075,"ensive":2076,"Ġwriting":2077,"Ġtraining":2078,"ĠAustro":2079,"Ġtransport":2080,"Ġguit":2081,"Ġfigures":2082,"ĠIndia":2083,"Ġtemples":2084,"Ġactivities":2085,"Ġviol":2086,"ĠFlower":2087,"Ġsimilar":2088,"Ġlimited":2089,"ĠRepublic":2090,"ficult":2091,"Ġmaterial":2092,"ĠDecember":2093,"ĠGeneral":2094,"cer":2095,"ched":2096,"cret":2097,"sel":2098,"tic":2099,"thes":2100,"rew":2101,"Ġside":2102,"Ġschool":2103,"Ġsilver":2104,"ats":2105,"Ġfav":2106,"Ġfung":2107,"Ġpe":2108,"Ġpie":2109,"Ġball":2110,"Ġdr":2111,"icago":2112,"Ġtop":2113,"Ġmed":2114,"Ġmult":2115,"ential":2116,"oming":2117,"ament":2118,"ĠCAA":2119,"ote":2120,"oted":2121,"acre":2122,"Ġwithout":2123,"uted":2124,"ĠFe":2125,"ĠPol":2126,"odies":2127,"ument":2128,"ĠGamb":2129,"ords":2130,"Ġshort":2131,"Ġshoot":2132,"Ġrul":2133,"ĠChicago":2134,"ideo":2135,"Ġintro":2136,"Ġ1998":2137,"Ġothers":2138,"Ġrelations":2139,"Ġrelease":2140,"Ġdesigned":2141,"Ġaccept":2142,"Ġissue":2143,"Ġdifficult":2144,"Ġspecies":2145,"Ġstarted":2146,"Ġpresident":2147,"Ġemploy":2148,"Ġloss":2149,"Ġshrine":2150,"ĠCarolina":2151,"ĠEurope":2152,"ĠLongacre":2153,"Ġannounced":2154,"..":2155,"aff":2156,"cing":2157,"cent":2158,"oard":2159,"zher":2160,"zog":2161,"Ġill":2162,"Ġtreat":2163,"Ġwater":2164,"Ġ...":2165,"ital":2166,"Ġcru":2167,"Ġfar":2168,"Ġfle":2169,"Ġface":2170,"Ġfranch":2171,"Ġpast":2172,"Ġpick":2173,"Ġtoo":2174,"Ġtotal":2175,"Ġmask":2176,"Ġhome":2177,"Ġreport":2178,"stit":2179,"Ġlook":2180,"ĠCal":2181,"ivers":2182,"ĠBut":2183,"ĠHor":2184,"ody":2185,"uments":2186,"Ġwhat":2187,"Ġsect":2188,"ĠGoat":2189,"ĠGeor":2190,"ĠEle":2191,"ested":2192,"Ġvis":2193,"aken":2194,"Ġyoung":2195,"Ġ2001":2196,"Ġ184":2197,"Ġtele":2198,"Ġscul":2199,"Ġupon":2200,"Ġforms":2201,"Ġformed":2202,"Ġincluded":2203,"Ġcarried":2204,"Ġindic":2205,"Ġsurround":2206,"Ġimpro":2207,"Ġdemon":2208,"Ġsigned":2209,"Ġwinning":2210,"ĠAmun":2211,"Ġsongs":2212,"Ġvarious":2213,"Ġsuccessful":2214,"Ġreligion":2215,"Ġinvolved":2216,"ĠMex":2217,"Ġstrong":2218,"Ġestablished":2219,"ĠFairies":2220,"Ġtroops":2221,"ĠErzher":2222,"ĠErzherzog":2223,"II":2224,"aut":2225,"ec":2226,"eh":2227,"ler":2228,"less":2229,"nal":2230,"pg":2231,"uk":2232,"ĠÂ":2233,"Ġtri":2234,"Ġtyp":2235,"ery":2236,"Ġsun":2237,"Ġsite":2238,"Ġsize":2239,"itive":2240,"itted":2241,"Ġcm":2242,"Ġcoll":2243,"Ġfail":2244,"Ġfurther":2245,"isod":2246,"ants":2247,"aled":2248,"Ġinch":2249,"Ġinstr":2250,"Ġmm":2251,"ilities":2252,"ĠSan":2253,"Ġnight":2254,"Ġnature":2255,"ĠCl":2256,"ĠCan":2257,"Ġeither":2258,"ĠMet":2259,"ĠMax":2260,"Ġdeb":2261,"ĠPr":2262,"vers":2263,"Ġsex":2264,"Ġseven":2265,"aval":2266,"Ġanim":2267,"Ġconn":2268,"Ġconstruction":2269,"ĠLight":2270,"ĠLond":2271,"rif":2272,"riend":2273,"anted":2274,"Ġrange":2275,"Ġchampions":2276,"ĠâĢĻ":2277,"Ġext":2278,"app":2279,"aper":2280,"Ġkill":2281,"itions":2282,"Ġplaying":2283,"Ġarch":2284,"Ġarsenal":2285,"Ġ2014":2286,"Ġimage":2287,"duced":2288,"Ġdespite":2289,"Ġ50":2290,"ought":2291,"Ġusing":2292,"ibility":2293,"Ġdecided":2294,"Ġfeet":2295,"Ġsubsequ":2296,"Ġelements":2297,"Ġacross":2298,"Ġdays":2299,"Ġparticip":2300,"Ġepisod":2301,"Ġterms":2302,"Ġsolo":2303,"Ġcommunity":2304,"Ġassassination":2305,"ĠZapata":2306,"Ġfocus":2307,"Ġsignificant":2308,"Ġfranchise":2309,"ĠLondon":2310,"lide":2311,"oid":2312,"pan":2313,"rated":2314,"Ã¡":2315,"Ġer":2316,"Ġident":2317,"Ġtw":2318,"Ġaction":2319,"reet":2320,"Ġsister":2321,"Ġwall":2322,"atters":2323,"orts":2324,"Ġcour":2325,"Ġfelt":2326,"Ġfederal":2327,"isters":2328,"estern":2329,"Ġpubl":2330,"Ġinj":2331,"Ġins":2332,"ington":2333,"Ġbus":2334,"ased":2335,"Ġma":2336,"Ġmember":2337,"Ġhow":2338,"Ġhur":2339,"Ġhaving":2340,"Ġreve":2341,"Ġreached":2342,"Ġthings":2343,"ĠAg":2344,"ĠAp":2345,"Ġlic":2346,"Ġlaw":2347,"ĠMar":2348,"Ġste":2349,"Ġstri":2350,"ĠPlay":2351,"ĠPenn":2352,"Ġcondu":2353,"emon":2354,"rie":2355,"Ġplain":2356,"Ġprop":2357,"Ġchang":2358,"que":2359,"Ġrecog":2360,"Ġ2003":2361,"Ġabs":2362,"Ġ1994":2363,"ĠYear":2364,"Ġtheme":2365,"ĠReg":2366,"Ġ88":2367,"ĠSecond":2368,"Ġdecl":2369,"Ġdepart":2370,"Ġbrother":2371,"Ġofficial":2372,"Ġperformance":2373,"Ġissued":2374,"Ġestim":2375,"Ġspecific":2376,"Ġtemple":2377,"Ġpersonal":2378,"ĠIII":2379,"Ġappearance":2380,"Ġbattle":2381,"ography":2382,"Ġrequired":2383,"Ġguns":2384,"Ġevery":2385,"Ġgreater":2386,"Ġprimary":2387,"Ġreagents":2388,"Ġfictional":2389,"ricane":2390,"Ġavail":2391,"ĠAccording":2392,"Ġguitar":2393,"ĠGambia":2394,"Ġhurricane":2395,"Ġrecogn":2396,"cis":2397,"dle":2398,"ga":2399,"ger":2400,"ked":2401,"ll":2402,"oad":2403,"ric":2404,"syl":2405,"xts":2406,"Ġ-":2407,"Ġiron":2408,"ont":2409,"ones":2410,"Ġsoc":2411,"Ġsky":2412,"Ġsitu":2413,"nder":2414,"ories":2415,"ites":2416,"Ġche":2417,"Ġcred":2418,"Ġcamp":2419,"Ġcase":2420,"Ġfull":2421,"isl":2422,"aries":2423,"Ġpain":2424,"Ġpri":2425,"Ġpress":2426,"Ġborn":2427,"Ġmag":2428,"ĠTo":2429,"Ġrevolution":2430,"Ġ100":2431,"ster":2432,"omm":2433,"Ġnar":2434,"Ġnames":2435,"Ġlost":2436,"Ġlittle":2437,"ĠCo":2438,"ivid":2439,"otion":2440,"Ġforce":2441,"igence":2442,"acy":2443,"idence":2444,"ĠBr":2445,"ĠBat":2446,"Ġheavy":2447,"sec":2448,"sey":2449,"ĠFer":2450,"Ġdev":2451,"ĠPres":2452,"ĠNe":2453,"ĠRiver":2454,"erson":2455,"ĠEar":2456,"Ġylide":2457,"ĠState":2458,"ffic":2459,"Ġregul":2460,"Ġbase":2461,"Ġground":2462,"useum":2463,"Ġfinally":2464,"Ġfourth":2465,"Ġbuild":2466,"Ġsurv":2467,"rent":2468,"Ġbelow":2469,"Ġhumans":2470,"Ġdoor":2471,"ĠJohnson":2472,"Ġperformed":2473,"Ġlocated":2474,"Ġoriginally":2475,"Ġcreation":2476,"Ġcreated":2477,"Ġsynthes":2478,"ĠCharles":2479,"ĠConf":2480,"Ġfeatured":2481,"space":2482,"Ġexpress":2483,"Ġdamage":2484,"Ġapproach":2485,"Ġreviews":2486,"Ġeffect":2487,"Ġdetail":2488,"Ġinstead":2489,"Ġlegisl":2490,"Ġcreator":2491,"ĠTeam":2492,"ĠAssociation":2493,"Ġjoined":2494,"Ġhours":2495,"ĠJuly":2496,"ĠBuilding":2497,"Ġcarbonaria":2498,"Ġaspects":2499,"Ġearlier":2500,"Ġmaskray":2501,"ĠEleph":2502,"Ġsculpt":2503,"ĠPennsyl":2504,"Ġsocial":2505,"ĠPennsylvan":2506,"MS":2507,"cient":2508,"din":2509,"iety":2510,"ãĤ":2511,"ĠQ":2512,"ert":2513,"ream":2514,"reme":2515,"Ġwind":2516,"Ġwife":2517,"Ġcut":2518,"Ġcup":2519,"Ġfre":2520,"Ġfriend":2521,"ency":2522,"ises":2523,"Ġpound":2524,"Ġpract":2525,"aster":2526,"Ġdou":2527,"roy":2528,"roz":2529,"roph":2530,"Ġmor":2531,"Ġmaking":2532,"Ġhill":2533,"Ġgave":2534,"ĠAward":2535,"ĠAviation":2536,"ĠSer":2537,"ĠSim":2538,"ĠSchool":2539,"ĠCA":2540,"ĠCare":2541,"ĠCourt":2542,"imately":2543,"Ġbegin":2544,"acing":2545,"iding":2546,"ĠBook":2547,"utes":2548,"ĠHist":2549,"ĠGold":2550,"chol":2551,"iest":2552,"ifth":2553,"istics":2554,"illa":2555,"Ġrank":2556,"Ġexc":2557,"Ġexist":2558,"Ġexpl":2559,"ĠSte":2560,"elligence":2561,"Ġ45":2562,"ockey":2563,"Ġ1990":2564,"Ġ1995":2565,"Ġ1996":2566,"Ġoffer":2567,"Ġclos":2568,"Ġclaim":2569,"luded":2570,"Ġadv":2571,"Ġrespect":2572,"ĠRec":2573,"Ġworked":2574,"ference":2575,"Ġprin":2576,"ĠOne":2577,"Ġaccording":2578,"Ġwriter":2579,"Ġmeth":2580,"Ġindivid":2581,"Ġminor":2582,"Ġremaining":2583,"Ġqual":2584,"Ġdoes":2585,"omination":2586,"Ġgenerally":2587,"Ġhands":2588,"Ġpurch":2589,"ĠCharl":2590,"Ġhelp":2591,"Ġchildren":2592,"Ġparticularly":2593,"Ġesc":2594,"Ġplayoffs":2595,"Ġlarger":2596,"ĠDarwin":2597,"Ġfootball":2598,"Ġsometimes":2599,"Ġindustry":2600,"ombard":2601,"ĠItalian":2602,"selves":2603,"Ġpiece":2604,"ĠHorus":2605,"Ġpublished":2606,"ĠFerdin":2607,"ĠConfeder":2608,"ĠFerdinand":2609,"ches":2610,"day":2611,"ground":2612,"ms":2613,"ney":2614,"pose":2615,"rant":2616,"tles":2617,"ãĥ":2618,"Ġ&":2619,"Ġru":2620,"Ġtaking":2621,"inct":2622,"Ġsat":2623,"Ġsac":2624,"Ġwing":2625,"Ġwest":2626,"Ġwide":2627,"Ġca":2628,"Ġclub":2629,"Ġfire":2630,"Ġpan":2631,"ald":2632,"Ġinv":2633,"Ġdict":2634,"ication":2635,"Ġtour":2636,"Ġmach":2637,"ĠTer":2638,"ĠTwo":2639,"Ġget":2640,"ĠAwards":2641,"ĠSMS":2642,"eless":2643,"Ġlack":2644,"ĠClub":2645,"Ġey":2646,"Ġeight":2647,"ett":2648,"utch":2649,"Ġalways":2650,"ĠPal":2651,"ĠPeople":2652,"rap":2653,"rand":2654,"ummer":2655,"Ġsearch":2656,"ush":2657,"Ġcondition":2658,"ĠWay":2659,"ĠWiz":2660,"aging":2661,"hern":2662,"osp":2663,"ateg":2664,"ĠOroz":2665,"orthern":2666,"Ġchap":2667,"Ġchange":2668,"oph":2669,"Ġexcept":2670,"aped":2671,"ĠKar":2672,"Ġnoted":2673,"Ġ2002":2674,"ellow":2675,"igned":2676,"Ġroles":2677,"Ġairfield":2678,"Ġ35":2679,"Ġinches":2680,"Ġtexts":2681,"Ġappl":2682,"ization":2683,"Ġimages":2684,"Ġscored":2685,"Ġ1991":2686,"Ġ1997":2687,"Ġjud":2688,"Ġregion":2689,"Ġthemselves":2690,"Ġmostly":2691,"Ġintern":2692,"Ġsymb":2693,"Ġprivate":2694,"Ġsupp":2695,"Ġsoon":2696,"Ġmetres":2697,"eep":2698,"Ġgoals":2699,"Ġappoin":2700,"Ġmaintain":2701,"Ġquick":2702,"strict":2703,"Ġentran":2704,"Ġdiscover":2705,"Ġissues":2706,"Ġ1861":2707,"ĠIsland":2708,"Ġbelief":2709,"ology":2710,"ological":2711,"Ġvery":2712,"Ġinfluence":2713,"ituals":2714,"Ġcertain":2715,"Ġprofess":2716,"Ġpraised":2717,"Ġexperi":2718,"Ġfungus":2719,"Ġshooting":2720,"Ġtelevision":2721,"ĠMexico":2722,"Ġarchit":2723,"Ġmaat":2724,"ĠElephanta":2725,"ĠWizards":2726,"ĠOrozco":2727,"Ġsymbol":2728,"actions":2729,"epend":2730,"ges":2731,"mitted":2732,"oon":2733,"ole":2734,"sh":2735,"ze":2736,"Ġtru":2737,"Ġtied":2738,"Ġaff":2739,"ering":2740,"Ġwid":2741,"Ġwoman":2742,"itb":2743,"itors":2744,"Ġce":2745,"Ġcall":2746,"Ġpred":2747,"anc":2748,"Ġinform":2749,"Ġinsp":2750,"Ġbass":2751,"Ġtown":2752,"Ġmale":2753,"Ġhouse":2754,"Ġreason":2755,"Ġrestrict":2756,"Ġgl":2757,"ili":2758,"ĠSm":2759,"ĠSociety":2760,"standing":2761,"Ġlif":2762,"ĠCab":2763,"Ġemer":2764,"iring":2765,"Ġonce":2766,"owled":2767,"ĠMa":2768,"ĠMus":2769,"ĠBob":2770,"eth":2771,"Ġstanding":2772,"Ġstaff":2773,"ults":2774,"Ġ27":2775,"Ġ28":2776,"Ġdeploy":2777,"umm":2778,"ĠGh":2779,"ĠGar":2780,"ĠGall":2781,"ĠGreat":2782,"ĠRoman":2783,"uss":2784,"ĠEx":2785,"ĠEach":2786,"Ġcomment":2787,"Ġvideo":2788,"ably":2789,"Ġrituals":2790,"iple":2791,"ournal":2792,"ĠKn":2793,"ĠChild":2794,"Ġarg":2795,"Ġarr":2796,"Ġairspace":2797,"Ġ188":2798,"ounter":2799,"Ġ1993":2800,"ervation":2801,"Ġclose":2802,"Ġseasons":2803,"Ġoverall":2804,"Ġadapt":2805,"Ġnewly":2806,"ĠDef":2807,"Ġaccom":2808,"Ġoperation":2809,"Ġnoise":2810,"Ġnumbers":2811,"Ġgood":2812,"Ġcoach":2813,"Ġphys":2814,"Ġ1920":2815,"Ġconcern":2816,"Ġshows":2817,"Ġpurpos":2818,"ĠIsis":2819,"conom":2820,"Ġcomplex":2821,"Ġweap":2822,"Ġmajority":2823,"ĠFrancis":2824,"Ġrespons":2825,"semble":2826,"ĠProject":2827,"ĠDespite":2828,"Ġattempted":2829,"Ġcompetition":2830,"Ġoccur":2831,"Ġvocals":2832,"Ġhighest":2833,"Ġfavor":2834,"Ġillust":2835,"Ġtreaty":2836,"Ġdemonstr":2837,"Ġbusiness":2838,"Ġavailable":2839,"Ġarchitect":2840,"ĠCabral":2841,"FA":2842,"eenth":2843,"ha":2844,"nance":2845,"pir":2846,"uc":2847,"xis":2848,"Ã©":2849,"ĠX":2850,"Ġtre":2851,"Ġaut":2852,"onium":2853,"Ġsociety":2854,"Ġwa":2855,"Ġwent":2856,"Ġwee":2857,"att":2858,"oration":2859,"orial":2860,"itch":2861,"Ġcas":2862,"Ġcapt":2863,"Ġfund":2864,"Ġfight":2865,"Ġfans":2866,"Ġfifth":2867,"ened":2868,"isf":2869,"Ġppg":2870,"ane":2871,"anes":2872,"Ġdro":2873,"Ġdate":2874,"Ġdied":2875,"icrol":2876,"Ġtoget":2877,"Ġmer":2878,"Ġmight":2879,"Ġhon":2880,"Ġthreat":2881,"Ġgive":2882,"ĠSu":2883,"ĠSup":2884,"ĠServ":2885,"Ġnation":2886,"ĠCivil":2887,"Ġeconom":2888,"owers":2889,"idge":2890,"ĠMil":2891,"urb":2892,"ĠBet":2893,"ĠIm":2894,"Ġstates":2895,"Ġstep":2896,"utive":2897,"Ġ22":2898,"ĠFollow":2899,"ĠPatters":2900,"ĠNash":2901,"ĠGl":2902,"ĠRoyal":2903,"ĠDah":2904,"ements":2905,"ĠEastern":2906,"ĠWill":2907,"ĠWest":2908,"ĠLater":2909,"order":2910,"pecial":2911,"Ġplaced":2912,"istr":2913,"ĠOs":2914,"Ġvict":2915,"anti":2916,"ability":2917,"Ġleast":2918,"Ġking":2919,"Ġkings":2920,"Ġkind":2921,"Ġkeep":2922,"Ġ2004":2923,"elled":2924,"Ġunit":2925,"Ġairports":2926,"Ġ189":2927,"Ġcontr":2928,"reek":2929,"Ġ1992":2930,"Ġdisplay":2931,"Ġadd":2932,"Ġneg":2933,"Ġnecess":2934,"Ġrecording":2935,"Ġflights":2936,"ĠArt":2937,"rought":2938,"Ġformation":2939,"Ġspot":2940,"Ġcenter":2941,"ĠAnother":2942,"Ġdecision":2943,"Ġaccess":2944,"Ġmean":2945,"Ġseconds":2946,"Ġpoly":2947,"Ġsubject":2948,"Ġbroad":2949,"Ġpositive":2950,"Ġowner":2951,"Ġentire":2952,"obe":2953,"Ġserved":2954,"Ġblack":2955,"Ġguard":2956,"Ġcrew":2957,"Ġthought":2958,"ĠCroyd":2959,"ĠAmerica":2960,"Ġportico":2961,"Ġgiving":2962,"Ġbattles":2963,"Ġmodern":2964,"Ġview":2965,"Ġturned":2966,"Ġallowed":2967,"Ġprovided":2968,"Ġdepicted":2969,"Ġtraditional":2970,"Ġinitially":2971,"Ġdestroy":2972,"ĠMany":2973,"Ġoppos":2974,"Ġgrowth":2975,"medi":2976,"ĠCroatia":2977,"Ġsoldiers":2978,"Ġeventually":2979,"ĠFeast":2980,"Ġfleet":2981,"Ġreported":2982,"Ġsector":2983,"Ġ1849":2984,"Ġdebut":2985,"Ġsexual":2986,"Ġchampionship":2987,"Ġsubsequently":2988,"Ġconducted":2989,"Ġdouble":2990,"ĠCAT":2991,"ĠCarey":2992,"Ġbeginning":2993,"Ġinternational":2994,"Ġprofessional":2995,"Ġpurposes":2996,"Ġtogether":2997,"ĠFollowing":2998,"ĠPatterson":2999,"ĠCroydon":3000,"ae":3001,"by":3002,"go":3003,"gr":3004,"gram":3005,"han":3006,"haw":3007,"iam":3008,"ka":3009,"lock":3010,"ores":3011,"rack":3012,"sky":3013,"yr":3014,"Ġult":3015,"Ġrif":3016,"Ġtest":3017,"rec":3018,"Ġsw":3019,"Ġsou":3020,"Ġsket":3021,"Ġschol":3022,"Ġop":3023,"Ġour":3024,"Ġwanted":3025,"itte":3026,"Ġcand":3027,"Ġcourt":3028,"Ġfix":3029,"Ġfield":3030,"ising":3031,"arily":3032,"Ġpen":3033,"aly":3034,"ingal":3035,"ingly":3036,"Ġbrought":3037,"Ġtold":3038,"Ġmi":3039,"Ġmount":3040,"Ġhor":3041,"Ġhair":3042,"ĠType":3043,"let":3044,"Ġgen":3045,"ĠSl":3046,"ĠSur":3047,"ĠSun":3048,"ĠSav":3049,"omes":3050,"ama":3051,"Ġnon":3052,"Ġnaval":3053,"Ġlower":3054,"ĠCore":3055,"Ġelect":3056,"ivity":3057,"ĠMem":3058,"ĠMag":3059,"urch":3060,"urti":3061,"ĠBas":3062,"Ġstation":3063,"Ġstreak":3064,"ully":3065,"ĠFirst":3066,"ĠPilot":3067,"ĠPeng":3068,"ceed":3069,"ĠJap":3070,"ĠNam":3071,"umn":3072,"Ġselected":3073,"Ġsepar":3074,"ĠGot":3075,"ĠGod":3076,"ussion":3077,"chn":3078,"ĠEAS":3079,"ains":3080,"Ġproble":3081,"Ġprogress":3082,"Ġorb":3083,"ĠOther":3084,"Ġexamp":3085,"Ġextend":3086,"Ġyou":3087,"thern":3088,"Ġ2005":3089,"Ġroad":3090,"Ġwhole":3091,"Ġ180":3092,"Ġ187":3093,"Ġ40":3094,"ously":3095,"Ġable":3096,"Ġitself":3097,"Ġ1999":3098,"Ġenv":3099,"Ġclosed":3100,"Ġmanag":3101,"rying":3102,"Ġbecoming":3103,"Ġfloor":3104,"ĠArmy":3105,"Ġfind":3106,"Ġfinish":3107,"Ġfinished":3108,"Ġacting":3109,"Ġconsist":3110,"Ġconsisted":3111,"ĠSevent":3112,"Ġobject":3113,"ification":3114,"Ġarmed":3115,"azine":3116,"Ġ1988":3117,"Ġmove":3118,"Ġhighly":3119,"Ġplanning":3120,"Ġplanned":3121,"Ġelections":3122,"Ġdefe":3123,"Ġ1862":3124,"Ġrare":3125,"ĠIndian":3126,"Ġalongside":3127,"Ġgroups":3128,"ĠLeague":3129,"Ġfeatures":3130,"Ġversion":3131,"Ġstatute":3132,"Ġpromin":3133,"Ġmodel":3134,"ĠCommand":3135,"Ġnearly":3136,"Ġeffort":3137,"Ġdeterm":3138,"Ġmissing":3139,"Ġinfluenced":3140,"Ġgreatest":3141,"Ġceremon":3142,"Ġaerodrome":3143,"vanced":3144,"Ġespecial":3145,"Ġslow":3146,"Ġestablish":3147,"Ġopening":3148,"Ġattempt":3149,"ĠEmmy":3150,"Ġinitial":3151,"Ġforeign":3152,"ĠChristian":3153,"Ġhistorical":3154,"Ġphotograph":3155,"Ġsuffered":3156,"ĠGovernor":3157,"Ġintroduced":3158,"Ġaccepted":3159,"ĠEuropean":3160,"Ġtypes":3161,"ĠLightning":3162,"Ġepisode":3163,"Ġproposed":3164,"Ġestimated":3165,"Ġsculpture":3166,"ĠPennsylvania":3167,"ĠHistory":3168,"ĠPalin":3169,"Ġairfields":3170,"Ġquickly":3171,"Ġentrance":3172,"Ġphysical":3173,"ittee":3174,"Ġcandid":3175,"ĠPengu":3176,"ĠEASA":3177,"Ġexample":3178,"Ġespecially":3179,"aired":3180,"break":3181,"com":3182,"den":3183,"gia":3184,"king":3185,"kov":3186,"mi":3187,"most":3188,"mates":3189,"oom":3190,"pts":3191,"rill":3192,"the":3193,"tation":3194,"hel":3195,"Ġage":3196,"inity":3197,"onse":3198,"Ġson":3199,"Ġsound":3200,"edic":3201,"Ġcle":3202,"Ġcross":3203,"Ġcounter":3204,"Ġpair":3205,"Ġbody":3206,"Ġdone":3207,"Ġdread":3208,"icts":3209,"Ġtowards":3210,"Ġmust":3211,"Ġmass":3212,"Ġthus":3213,"ĠAf":3214,"ĠAer":3215,"ĠSince":3216,"ĠSyn":3217,"sted":3218,"stant":3219,"eles":3220,"Ġnine":3221,"Ġlanding":3222,"Ġlives":3223,"Ġlatter":3224,"iris":3225,"Ġones":3226,"otte":3227,"Ġasked":3228,"ĠMon":3229,"ĠMed":3230,"ĠMac":3231,"ĠMajor":3232,"urder":3233,"aykov":3234,"ĠIts":3235,"Ġstage":3236,"Ġ26":3237,"Ġalmost":3238,"Ġdead":3239,"ĠHar":3240,"ĠHow":3241,"ĠHall":3242,"ĠHigh":3243,"ĠHorn":3244,"ĠNorthern":3245,"unity":3246,"ĠGerm":3247,"ĠRav":3248,"Ġ190":3249,"ĠDav":3250,"ĠDutch":3251,"ĠEast":3252,"ĠWe":3253,"ĠWestern":3254,"Ġcome":3255,"Ġprohib":3256,"oss":3257,"ifest":3258,"ills":3259,"illance":3260,"Ġcho":3261,"quare":3262,"Ġexpect":3263,"Ġlet":3264,"ĠStreet":3265,"Ġrecre":3266,"ĠChaykov":3267,"Ġworst":3268,"elling":3269,"Ġuns":3270,"Ġunits":3271,"Ġroom":3272,"Ġwhose":3273,"Ġscope":3274,"Ġ500":3275,"Ġagre":3276,"aren":3277,"Ġcommission":3278,"Ġprep":3279,"Ġprevent":3280,"Ġuses":3281,"Ġteams":3282,"Ġrelated":3283,"Ġevidence":3284,"Ġworks":3285,"Ġworking":3286,"Ġretired":3287,"Ġspent":3288,"icks":3289,"ĠAng":3290,"ributed":3291,"Ġearth":3292,"Ġdepicts":3293,"Ġmeas":3294,"Ġmeet":3295,"eball":3296,"veillance":3297,"Ġdesignated":3298,"Ġfollowed":3299,"Ġsaw":3300,"Ġowned":3301,"Ġ1986":3302,"Ġphara":3303,"Ġ1923":3304,"Ġ1929":3305,"Ġservice":3306,"Ġ1911":3307,"ĠAmend":3308,"Ġcritics":3309,"Ġconcluded":3310,"ĠEnter":3311,"Ġpurpose":3312,"Ġdistinct":3313,"ĠConference":3314,"Ġsupported":3315,"annah":3316,"ĠCarter":3317,"Ġprotect":3318,"Ġmissions":3319,"Ġobservatory":3320,"Ġcontrolled":3321,"Ġstudy":3322,"Ġresponse":3323,"Ġfacilities":3324,"Ġcommander":3325,"Ġgoddesses":3326,"Ġgrad":3327,"Ġ1961":3328,"Ġcombined":3329,"Ġlabor":3330,"Ġlabel":3331,"Ġtitle":3332,"Ġpattern":3333,"Ġcurrent":3334,"Ġmixed":3335,"Ġsurrounding":3336,"Ġconnected":3337,"rief":3338,"Ġcredited":3339,"ĠEarly":3340,"ĠRecords":3341,"ĠCharlotte":3342,"ĠConfederate":3343,"Ġdictator":3344,"ĠKarl":3345,"ependent":3346,"itbodies":3347,"ournalists":3348,"ĠOsiris":3349,"ĠSavannah":3350,"ĠCorey":3351,"ĠNameless":3352,"ĠSeventeenth":3353,"ĠPenguins":3354,"ĠChaykovsky":3355,"aign":3356,"bes":3357,"date":3358,"fact":3359,"hm":3360,"kan":3361,"la":3362,"min":3363,"ties":3364,"uck":3365,"val":3366,"worth":3367,"Å¡":3368,"Ġess":3369,"Ġter":3370,"Ġtor":3371,"Ġten":3372,"Ġactions":3373,"orian":3374,"Ġcast":3375,"Ġfly":3376,"Ġfully":3377,"ison":3378,"isions":3379,"aring":3380,"Ġpaper":3381,"ality":3382,"Ġburn":3383,"Ġbox":3384,"Ġdies":3385,"Ġtouring":3386,"rot":3387,"Ġmot":3388,"Ġmicrol":3389,"ĠTim":3390,"ĠTem":3391,"ĠTimes":3392,"leb":3393,"Ġgir":3394,"ĠAten":3395,"iling":3396,"ĠSri":3397,"ĠSpr":3398,"Ġlay":3399,"Ġliter":3400,"Ġlyr":3401,"ĠCong":3402,"ĠCapt":3403,"ots":3404,"othe":3405,"otential":3406,"iment":3407,"imum":3408,"imate":3409,"Ġassemb":3410,"idents":3411,"ĠMuseum":3412,"ĠBC":3413,"ĠBi":3414,"ĠBost":3415,"etwork":3416,"Ġheav":3417,"Ġstop":3418,"Ġstorm":3419,"ĠFred":3420,"ĠFlying":3421,"ĠFingal":3422,"ĠPo":3423,"ĠPost":3424,"ĠPlayer":3425,"ĠHol":3426,"ĠHockey":3427,"rain":3428,"ĠJe":3429,"ĠNight":3430,"unk":3431,"Ġseated":3432,"ĠRel":3433,"usion":3434,"Ġconsec":3435,"ĠDou":3436,"ĠDiv":3437,"ĠDem":3438,"ĠDirect":3439,"thur":3440,"ĠWash":3441,"ĠLank":3442,"Ġplans":3443,"Ġproper":3444,"ify":3445,"Ġshif":3446,"Ġshaped":3447,"ĠOb":3448,"antic":3449,"abit":3450,"arded":3451,"Ġriding":3452,"Ġleaving":3453,"aph":3454,"ĠKings":3455,"ĠVai":3456,"Ġke":3457,"ells":3458,"ritory":3459,"Ġ38":3460,"wood":3461,"ounts":3462,"Ġability":3463,"Ġintended":3464,"Ġoffice":3465,"Ġclock":3466,"Ġjew":3467,"ression":3468,"ĠThat":3469,"ĠThom":3470,"irement":3471,"Ġbasic":3472,"Ġspeed":3473,"Ġspect":3474,"Ġflank":3475,"Ġ60":3476,"ĠUnivers":3477,"Ġrelief":3478,"Ġ86":3479,"oselect":3480,"Ġassists":3481,"Ġcarved":3482,"ĠAncon":3483,"ĠNBC":3484,"Ġdiver":3485,"Ġamb":3486,"Ġdeprec":3487,"Ġmeans":3488,"pped":3489,"Ġmint":3490,"ociated":3491,"Ġmovement":3492,"ĠAllied":3493,"Ġofficer":3494,"Ġsmaller":3495,"Ġacqu":3496,"Ġdefense":3497,"Ġrepresentative":3498,"Ġ1918":3499,"ĠAircraft":3500,"Ġcritical":3501,"Ġstrugg":3502,"Ġcontinue":3503,"Ġcolle":3504,"Ġprojects":3505,"Ġcompleted":3506,"Ġactivity":3507,"ĠAddition":3508,"Ġengine":3509,"iverse":3510,"Ġadditional":3511,"Ġobserved":3512,"Ġobservations":3513,"Ġcircul":3514,"Ġholds":3515,"ĠScott":3516,"Ġgrew":3517,"Ġparts":3518,"Ġincreased":3519,"Ġreflect":3520,"Ġequip":3521,"Ġstudio":3522,"Ġlosing":3523,"Ġresulted":3524,"Ġaveraged":3525,"Ġlaun":3526,"ironment":3527,"Ġdenomination":3528,"ĠAndrew":3529,"Ġstandards":3530,"ĠUpdate":3531,"Ġsays":3532,"Ġmiddle":3533,"ĠCenter":3534,"ĠPortug":3535,"Ġrelationship":3536,"Ġinstruments":3537,"ĠSanford":3538,"ĠPrivate":3539,"Ġextreme":3540,"Ġparticipated":3541,"Ġinjury":3542,"Ġrevealed":3543,"ĠAgust":3544,"Ġlicens":3545,"Ġprior":3546,"ĠPresident":3547,"ĠSteve":3548,"Ġappointed":3549,"Ġtrue":3550,"owledge":3551,"ĠFrancisco":3552,"Ġenvironment":3553,"Ġdreadn":3554,"ĠDavid":3555,"ĠEntertain":3556,"ĠCongress":3557,"ĠWashington":3558,"ĠAncona":3559,"18":3560,"22":3561,"Kay":3562,"af":3563,"gment":3564,"ham":3565,"iÄ":3566,"ius":3567,"ique":3568,"lish":3569,"nu":3570,"pic":3571,"pire":3572,"sive":3573,"tis":3574,"ximately":3575,"yal":3576,"yxis":3577,"ĠÃ":3578,"Ġtort":3579,"here":3580,"Ġaim":3581,"inition":3582,"indu":3583,"infor":3584,"insey":3585,"erous":3586,"erry":3587,"erick":3588,"ony":3589,"Ġsan":3590,"Ġsquadron":3591,"Ġsisters":3592,"Ġox":3593,"Ġoil":3594,"Ġwear":3595,"atican":3596,"orf":3597,"itable":3598,"itting":3599,"Ġcat":3600,"Ġcause":3601,"Ġfill":3602,"Ġfired":3603,"Ġfellow":3604,"Ġpoor":3605,"alth":3606,"Ġben":3607,"Ġbir":3608,"Ġbene":3609,"Ġbombard":3610,"Ġbrief":3611,"Ġdw":3612,"Ġdon":3613,"icop":3614,"Ġmurder":3615,"Ġhard":3616,"ĠTV":3617,"ĠTor":3618,"ĠTur":3619,"Ġread":3620,"Ġreferred":3621,"Ġreinfor":3622,"leg":3623,"lend":3624,"ouis":3625,"Ġthink":3626,"ĠSp":3627,"ĠSar":3628,"ĠSam":3629,"ĠSet":3630,"amples":3631,"Ġlot":3632,"Ġlink":3633,"ĠCu":3634,"ĠCor":3635,"ĠCup":3636,"otes":3637,"Ġforced":3638,"imin":3639,"imurti":3640,"ĠMor":3641,"ĠMal":3642,"ĠMid":3643,"ĠMason":3644,"ĠMumb":3645,"urre":3646,"Ġwithd":3647,"ays":3648,"ĠBab":3649,"Ġstating":3650,"Ġdeep":3651,"ĠPra":3652,"ĠPri":3653,"ĠPlan":3654,"ĠPope":3655,"ĠHindu":3656,"umed":3657,"Ġwhom":3658,"Ġselect":3659,"ĠGir":3660,"ĠGeop":3661,"ĠRam":3662,"ĠRober":3663,"Ġanch":3664,"Ġancient":3665,"Ġconce":3666,"ĠDu":3667,"ĠDor":3668,"ĠDun":3669,"throp":3670,"emed":3671,"eman":3672,"ership":3673,"ĠWal":3674,"ĠWood":3675,"anded":3676,"ĠLic":3677,"ĠLive":3678,"ĠLouis":3679,"rian":3680,"Ġcompl":3681,"Ġplaces":3682,"ocal":3683,"osm":3684,"ĠOt":3685,"ĠOut":3686,"ĠOper":3687,"ĠOffic":3688,"Ġrad":3689,"Ġrum":3690,"Ġcha":3691,"Ġchance":3692,"quel":3693,"Ġexhib":3694,"Ġexec":3695,"Ġherself":3696,"Ġylid":3697,"ĠVatican":3698,"oved":3699,"ograp":3700,"astic":3701,"Ġperman":3702,"Ġunl":3703,"Ġuncon":3704,"Ġroute":3705,"Ġ33":3706,"Ġtend":3707,"Ġtechn":3708,"phant":3709,"Ġintelligence":3710,"Ġenem":3711,"Ġenanti":3712,"Ġgameplay":3713,"Ġoffered":3714,"Ġmanifest":3715,"Ġupper":3716,"Ġregulation":3717,"Ġovert":3718,"Ġadvanced":3719,"ĠReign":3720,"Ġbaseball":3721,"Ġactive":3722,"Ġactress":3723,"ĠDep":3724,"ĠZilt":3725,"Ġspir":3726,"Ġinterview":3727,"Ġfeel":3728,"Ġwrite":3729,"Ġsurre":3730,"Ġarmy":3731,"Ġminutes":3732,"ismo":3733,"Ġmonitors":3734,"Ġremains":3735,"Ġsaf":3736,"Ġbackground":3737,"Ġmusical":3738,"Ġ1985":3739,"Ġ1987":3740,"Ġplanet":3741,"Ġelection":3742,"Ġelephant":3743,"Ġimpact":3744,"Ġdemons":3745,"Ġservices":3746,"Ġstruct":3747,"Ġstarting":3748,"uese":3749,"Ġvariety":3750,"vention":3751,"Ġfeature":3752,"Ġappearances":3753,"ĠFIFA":3754,"Ġengaged":3755,"clad":3756,"Ġholding":3757,"Ġepox":3758,"Ġhelicop":3759,"Ġinvolving":3760,"Ġbehav":3761,"ĠFrank":3762,"Ġdirector":3763,"Ġrefused":3764,"Ġallowing":3765,"Ġaveraging":3766,"Ġlargely":3767,"Ġattended":3768,"Ġordnance":3769,"Ġcapable":3770,"ĠTrinsey":3771,"ĠTrimurti":3772,"Ġmyths":3773,"Ġfunction":3774,"Ġgliders":3775,"Ġideas":3776,"ĠGreg":3777,"ĠGreen":3778,"ĠEngland":3779,"ĠEnglish":3780,"ĠActress":3781,"Ġvocal":3782,"Ġsuggest":3783,"ĠMcKay":3784,"Ġvalue":3785,"Ġpossible":3786,"aught":3787,"Ġawarded":3788,"ĠEdm":3789,"Ġpeace":3790,"Ġmultiple":3791,"ĠGeorgia":3792,"Ġcollab":3793,"Ġkilled":3794,"ĠAppe":3795,"Ġironclad":3796,"Ġsituation":3797,"Ġcampaign":3798,"ĠBattle":3799,"Ġsynthesis":3800,"Ġdetails":3801,"ĠQue":3802,"Ġmorning":3803,"Ġindividual":3804,"Ġsacred":3805,"Ġpanel":3806,"Ġchapel":3807,"ĠSmith":3808,"Ġemerged":3809,"ĠMusic":3810,"Ġarrived":3811,"ĠService":3812,"Ġeconomic":3813,"ĠBetween":3814,"ĠDahl":3815,"Ġnecessary":3816,"Ġfixed":3817,"Ġmanagement":3818,"ĠGerman":3819,"ĠRavana":3820,"Ġpharaoh":3821,"Ġlyrics":3822,"ĠCaptain":3823,"ĠFrederick":3824,"Ġconsecutive":3825,"ĠDoug":3826,"ĠDirector":3827,"Ġkept":3828,"ĠUniversity":3829,"Ġlaunched":3830,"ĠPortuguese":3831,"Ġbirth":3832,"ĠTurk":3833,"ĠMumbai":3834,"ĠGeopyxis":3835,"ĠZiltoid":3836,"AR":3837,"Ar":3838,"Station":3839,"aul":3840,"cri":3841,"cock":3842,"cious":3843,"chest":3844,"fall":3845,"hing":3846,"hold":3847,"hood":3848,"haps":3849,"ki":3850,"na":3851,"och":3852,"pond":3853,"ufact":3854,"vey":3855,"vara":3856,"ware":3857,"Ã³":3858,"Ġtal":3859,"Ġtarg":3860,"Ġtax":3861,"Ġtype":3862,"head":3863,"iny":3864,"inations":3865,"onents":3866,"Ġsquare":3867,"atur":3868,"atural":3869,"atives":3870,"orated":3871,"orpor":3872,"Ġcost":3873,"Ġcited":3874,"Ġcateg":3875,"Ġcosm":3876,"inga":3877,"ingu":3878,"Ġbi":3879,"Ġbank":3880,"asy":3881,"Ġdoc":3882,"Ġdark":3883,"Ġdata":3884,"Ġdaugh":3885,"icide":3886,"Ġmention":3887,"Ġmakes":3888,"Ġhar":3889,"Ġhall":3890,"Ġhop":3891,"Ġhang":3892,"Ġhier":3893,"ĠTot":3894,"ĠTod":3895,"Ġred":3896,"Ġrever":3897,"lets":3898,"stron":3899,"Ġloyal":3900,"adh":3901,"ades":3902,"Ġeag":3903,"Ġemb":3904,"Ġeastern":3905,"iration":3906,"irty":3907,"lym":3908,"lywood":3909,"acles":3910,"ĠMin":3911,"ĠMer":3912,"ĠMore":3913,"ĠMary":3914,"ĠMiss":3915,"ĠBh":3916,"ĠBand":3917,"ĠBill":3918,"ĠBah":3919,"eted":3920,"uten":3921,"Ġ29":3922,"ĠFour":3923,"ĠPit":3924,"ĠPac":3925,"ĠPublic":3926,"cend":3927,"ĠHen":3928,"ĠRed":3929,"Ġath":3930,"ĠDr":3931,"ĠDraft":3932,"ĠDistr":3933,"cht":3934,"chan":3935,"thing":3936,"ĠWork":3937,"ĠWomen":3938,"ĠLa":3939,"aining":3940,"respond":3941,"rial":3942,"riage":3943,"iful":3944,"ifying":3945,"ateur":3946,"ighter":3947,"Ġareas":3948,"ĠInf":3949,"ĠIntern":3950,"ĠOld":3951,"ĠOlym":3952,"ruption":3953,"Ġvia":3954,"ĠUnder":3955,"Ġexcl":3956,"ĠKail":3957,"ĠStation":3958,"ĠVish":3959,"ĠVilla":3960,"Ġkg":3961,"Ġrecon":3962,"ieuten":3963,"duction":3964,"icture":3965,"Ġenough":3966,"Ġdisorder":3967,"Ġmanaged":3968,"Ġmanufact":3969,"Ġregister":3970,"Ġcompan":3971,"Ġcomposed":3972,"ludes":3973,"Ġado":3974,"Ġresc":3975,"Ġbecomes":3976,"Ġthemed":3977,"Ġthemes":3978,"Ġcommittee":3979,"Ġusually":3980,"Ġnews":3981,"Ġnewsp":3982,"uda":3983,"ibr":3984,"kend":3985,"Ġincludes":3986,"Ġacts":3987,"Ġ75":3988,"Ġ76":3989,"Ġ80":3990,"Ġretirement":3991,"Ġinterp":3992,"Ġinterest":3993,"ribution":3994,"Ġattention":3995,"Ġ94":3996,"Ġaccount":3997,"Ġdivin":3998,"Ġamateur":3999,"Ġended":4000,"Ġobtain":4001,"Ġindependent":4002,"Ġsurveillance":4003,"Ġgoing":4004,"Ġarmor":4005,"Ġcoast":4006,"Ġmoney":4007,"Ġsubstr":4008,"Ġtravel":4009,"Ġ1984":4010,"Ġtherefore":4011,"Ġquar":4012,"Ġtransfer":4013,"Ġtransferred":4014,"Ġrepresenting":4015,"Ġperforming":4016,"Ġmemory":4017,"ĠBlood":4018,"Ġrain":4019,"Ġraised":4020,"tender":4021,"Ġaerial":4022,"Ġstarred":4023,"Ġannular":4024,"reasury":4025,"Ġpresence":4026,"Ġcharacteristics":4027,"Ġ1942":4028,"Ġdistingu":4029,"ĠCharact":4030,"Ġconsider":4031,"Ġapproximately":4032,"Ġcomplet":4033,"Ġprotests":4034,"ĠCommunity":4035,"Ġ1930":4036,"ĠForce":4037,"Ġinfluences":4038,"ĠGuard":4039,"Ġturns":4040,"aska":4041,"Ġincrease":4042,"Ġincreasingly":4043,"Ġpassed":4044,"Ġdepicting":4045,"Ġopened":4046,"ĠEmpire":4047,"Ġassassins":4048,"Ġcorrespond":4049,"Ġcapital":4050,"Ġreagent":4051,"Ġglider":4052,"Ġgliding":4053,"Ġcaliber":4054,"Ġhosted":4055,"Ġgoaltender":4056,"iberty":4057,"Ġsulfur":4058,"Ġpatron":4059,"Ġdraw":4060,"ĠBarra":4061,"Ġsuggested":4062,"Ġblockade":4063,"Ġsaying":4064,"Ġfruitbodies":4065,"Ġmarked":4066,"Ġhigher":4067,"ĠWeekend":4068,"ãģ®":4069,"ĠGovernment":4070,"Ġmedia":4071,"ĠPolice":4072,"Ġindicated":4073,"Ġimprov":4074,"ehler":4075,"Ġfailed":4076,"Ġinstrument":4077,"Ġcourse":4078,"ĠPlayStation":4079,"Ġabsence":4080,"Ġmagazine":4081,"Ġnarr":4082,"Ġlegislation":4083,"Ġfriends":4084,"ĠGolden":4085,"Ġofferings":4086,"Ġrespectively":4087,"Ġprinc":4088,"Ġpurchased":4089,"Ġrule":4090,"ĠTerritory":4091,"Ġgetting":4092,"Ġapplied":4093,"Ġinformation":4094,"ĠKnicks":4095,"ĠChildren":4096,"Ġaccompan":4097,"Ġweapons":4098,"Ġillustr":4099,"ĠWilliam":4100,"Ġadded":4101,"Ġmeaning":4102,"Ġbattleships":4103,"Ġdestroyed":4104,"Ġopposite":4105,"Ġrifles":4106,"Ġsketch":4107,"ĠMagic":4108,"ĠBasketball":4109,"Ġproblems":4110,"Ġconsisting":4111,"Ġprominent":4112,"Ġcandidate":4113,"ĠMacAr":4114,"Ġrecreational":4115,"arent":4116,"Ġessential":4117,"Ġgirl":4118,"ĠSpring":4119,"Ġassembled":4120,"ĠBoston":4121,"ĠPoehler":4122,"ĠJeff":4123,"Ġflanked":4124,"Ġbombardment":4125,"ĠRobert":4126,"Ġrumors":4127,"Ġchaos":4128,"Ġpermanent":4129,"stronom":4130,"ĠDistrict":4131,"Ġexclus":4132,"ĠKailash":4133,"ĠVishnu":4134,"ĠMacArthur":4135,"away":4136,"bed":4137,"bur":4138,"cause":4139,"fael":4140,"gart":4141,"gree":4142,"gments":4143,"hist":4144,"iud":4145,"joy":4146,"las":4147,"lav":4148,"mar":4149,"mun":4150,"mond":4151,"ny":4152,"nel":4153,"nall":4154,"of":4155,"pread":4156,"rid":4157,"sc":4158,"spect":4159,"uel":4160,"uals":4161,"uable":4162,"vation":4163,"wide":4164,"yc":4165,"Ġut":4166,"Ĩst":4167,"Ġtaken":4168,"hetic":4169,"Ġach":4170,"inet":4171,"erate":4172,"rel":4173,"rez":4174,"reck":4175,"Ġsquad":4176,"Ġsense":4177,"Ġsites":4178,"Ġword":4179,"Ġwides":4180,"atively":4181,"ita":4182,"itiz":4183,"itage":4184,"Ġcro":4185,"Ġcam":4186,"Ġcres":4187,"Ġcart":4188,"Ġfut":4189,"Ġfest":4190,"Ġfair":4191,"isation":4192,"arap":4193,"Ġpa":4194,"Ġpay":4195,"Ġpist":4196,"Ġpleas":4197,"Ġba":4198,"Ġbad":4199,"Ġbill":4200,"Ġdut":4201,"Ġdail":4202,"Ġdram":4203,"Ġdedic":4204,"rog":4205,"Ġmel":4206,"Ġmom":4207,"Ġmax":4208,"Ġhap":4209,"ĠTar":4210,"ĠTra":4211,"Ġreform":4212,"Ġrefer":4213,"Ġrevers":4214,"Ġreactions":4215,"oura":4216,"Ġgar":4217,"ĠAc":4218,"ilized":4219,"ĠSal":4220,"ĠSch":4221,"sta":4222,"omer":4223,"Ġnomin":4224,"Ġnetwork":4225,"Ġlo":4226,"ĠCave":4227,"ĠCiud":4228,"add":4229,"ading":4230,"irm":4231,"iral":4232,"olic":4233,"olition":4234,"iven":4235,"othes":4236,"Ġforward":4237,"Ġbeings":4238,"Ġbeaut":4239,"ĠMat":4240,"ĠMach":4241,"uri":4242,"uries":4243,"ĠBal":4244,"ĠBra":4245,"ĠBud":4246,"ĠIf":4247,"Ġheight":4248,"utional":4249,"ules":4250,"ĠFrom":4251,"Ġdepend":4252,"Ġdegree":4253,"ĠPress":4254,"ĠPeter":4255,"ĠPerson":4256,"ĠPett":4257,"cean":4258,"ĠHun":4259,"ĠHum":4260,"ĠHart":4261,"ĠHath":4262,"ĠHouse":4263,"ĠHitch":4264,"ĠNot":4265,"ump":4266,"Ġsea":4267,"Ġsec":4268,"Ġsecret":4269,"ĠGo":4270,"ĠRod":4271,"ĠRick":4272,"Ġang":4273,"ushed":4274,"Ġconstru":4275,"Ġconne":4276,"ĠDream":4277,"ĠWrit":4278,"andatory":4279,"ĠLos":4280,"ĠLinga":4281,"ĠLiberty":4282,"Ġcomes":4283,"Ġcomeb":4284,"Ġplot":4285,"Ġproc":4286,"Ġprogram":4287,"iform":4288,"Ġshore":4289,"ĠInt":4290,"esty":4291,"Ġvan":4292,"Ġvice":4293,"anthe":4294,"Ġrate":4295,"Ġrather":4296,"Ġchall":4297,"Ġchose":4298,"artment":4299,"Ġlear":4300,"onged":4301,"Ġyour":4302,"ĠKim":4303,"ightly":4304,"ĠVen":4305,"ĠVar":4306,"ĠVict":4307,"Ġnotes":4308,"Ġnoting":4309,"oint":4310,"Ġrecently":4311,"Ġrecomm":4312,"Ġ2000":4313,"ĠHead":4314,"Ġunus":4315,"Ġunique":4316,"Ġ32":4317,"Ġ36":4318,"Ġ300":4319,"Ġincorpor":4320,"Ġ41":4321,"Ġ47":4322,"ousand":4323,"Ġdisp":4324,"Ġ52":4325,"Ġ53":4326,"Ġ54":4327,"Ġ56":4328,"Ġaggress":4329,"Ġshell":4330,"Ġjournalists":4331,"ressed":4332,"Ġregional":4333,"Ġcompos":4334,"ĠYog":4335,"Ġrecords":4336,"Ġflint":4337,"Ġpreced":4338,"othy":4339,"ĠArch":4340,"Ġrepaired":4341,"Ġ71":4342,"Ġ79":4343,"Ġconspir":4344,"Ġspread":4345,"ĠSea":4346,"Ġcharge":4347,"Ġundert":4348,"nington":4349,"Ġassociation":4350,"Ġassigned":4351,"Ġassumed":4352,"Ġcarving":4353,"Ġcargo":4354,"ribute":4355,"Ġsuper":4356,"Ġproducing":4357,"Ġ92":4358,"Ġ96":4359,"Ġamount":4360,"Ġammun":4361,"Ġmeant":4362,"Ġends":4363,"Ġsurf":4364,"Ġcancer":4365,"Ġapparent":4366,"azz":4367,"Ġmints":4368,"Ġmainly":4369,"Ġwhereas":4370,"reng":4371,"Ġremainder":4372,"ĠComedy":4373,"Ġleader":4374,"Ġenter":4375,"Ġdiscuss":4376,"Ġgeneration":4377,"ĠBulloch":4378,"Ġdefinition":4379,"Ġdemand":4380,"Ġserve":4381,"Ġserving":4382,"Ġreturning":4383,"Ġ1915":4384,"ception":4385,"ĠBecause":4386,"Ġstars":4387,"awa":4388,"Ġpreserv":4389,"Ġgives":4390,"Ġtraded":4391,"Ġbands":4392,"Ġmiles":4393,"Ġcollect":4394,"Ġcollected":4395,"Ġcolumn":4396,"Ġsupporting":4397,"Ġvers":4398,"Ġstatues":4399,"Ġcircum":4400,"Ġcirculation":4401,"Ġhelped":4402,"Ġways":4403,"Ġrespond":4404,"Ġposted":4405,"Ġpasseng":4406,"Ġprovide":4407,"Ġprimarily":4408,"Ġcreating":4409,"ĠFairy":4410,"ĠAustralian":4411,"Ġaverage":4412,"Ġdeliver":4413,"Ġauthority":4414,"Ġauthorities":4415,"Ġordered":4416,"Ġbrut":4417,"ĠRafael":4418,"Ġcombinations":4419,"Ġperiods":4420,"Ġneeded":4421,"ymn":4422,"Ġskills":4423,"Ġ1853":4424,"Ġphotograp":4425,"Ġidea":4426,"Ġtitles":4427,"Ġsomething":4428,"Ġwilling":4429,"Ġreplaced":4430,"Ġ1970":4431,"ĠCroatian":4432,"Ġrebound":4433,"ivalent":4434,"ĠWeek":4435,"Ġeduc":4436,"Ġmarriage":4437,"Ġrenew":4438,"ĠCentral":4439,"ĠRichard":4440,"ĠRichmond":4441,"Ġdrum":4442,"Ġrelationships":4443,"Ġdifficulty":4444,"Ġemployed":4445,"Ġcruis":4446,"stitutional":4447,"Ġsurrounded":4448,"III":4449,"autla":4450,"ĠÂ£":4451,"ĠCanad":4452,"Ġanimal":4453,"Ã¡rez":4454,"Ġchanges":4455,"Ġexpressed":4456,"Ġpractices":4457,"Ġmethod":4458,"Ġmachismo":4459,"Ġeyes":4460,"Ġconditions":4461,"Ġbeliefs":4462,"Ġexperienced":4463,"Ġceleb":4464,"ĠGallian":4465,"Ġadapted":4466,"Ġoccurred":4467,"Ġweeks":4468,"Ġfundament":4469,"Ġfighting":4470,"anese":4471,"Ġcontrast":4472,"mediate":4473,"Ġsouthern":4474,"Ġscholars":4475,"ceeded":4476,"Ġseparate":4477,"Ġextended":4478,"Ġdefeated":4479,"Ġrarely":4480,"Ġclear":4481,"ĠHowson":4482,"ĠAngeles":4483,"ĠAmendment":4484,"worthiness":4485,"Å¡ka":4486,"ĠAtenism":4487,"ĠObserv":4488,"Ġjewel":4489,"Ġdiverse":4490,"ĠAdditionally":4491,"Ġequipment":4492,"ĠÃĨst":4493,"ĠCuautla":4494,"ĠPraÅ¡ka":4495,"ĠGirls":4496,"ĠDorothy":4497,"ĠDunnington":4498,"ĠLicence":4499,"Ġylides":4500,"ĠGregorian":4501,"Ġcollaboration":4502,"ĠTotten":4503,"ĠInternational":4504,"ieutenant":4505,"Ġregistered":4506,"Ġdivinities":4507,"Ġachie":4508,"Ġwidespread":4509,"Ġdaily":4510,"Ġmaximum":4511,"Ġhappen":4512,"ĠCiudad":4513,"ĠHathor":4514,"ĠHitchcock":4515,"Ġcomeback":4516,"Ġammunition":4517,"ĠÃĨsthetic":4518,"CO":4519,"bably":4520,"cats":4521,"cussion":4522,"chel":4523,"eg":4524,"fort":4525,"fire":4526,"ien":4527,"kin":4528,"lin":4529,"light":4530,"lines":4531,"lls":4532,"laim":4533,"men":4534,"oil":4535,"ping":4536,"ries":4537,"raska":4538,"tra":4539,"tah":4540,"wing":4541,"wick":4542,"ych":4543,"ycl":4544,"¹¯":4545,"Åį":4546,"á¹¯":4547,"Ġic":4548,"Ġtide":4549,"Ġtons":4550,"Ġtone":4551,"Ġtakes":4552,"Ġaz":4553,"Ġaud":4554,"erated":4555,"ergart":4556,"oned":4557,"onom":4558,"onym":4559,"onkan":4560,"rea":4561,"rest":4562,"Ġsal":4563,"Ġsort":4564,"Ġsummer":4565,"Ġsoph":4566,"Ġweb":4567,"Ġwreck":4568,"aten":4569,"ithe":4570,"itan":4571,"itated":4572,"Ġcou":4573,"Ġcards":4574,"Ġcaught":4575,"Ġcitiz":4576,"Ġfr":4577,"Ġfat":4578,"Ġfal":4579,"Ġfra":4580,"Ġfall":4581,"Ġfear":4582,"enes":4583,"Ġpark":4584,"Ġpotential":4585,"Ġpanthe":4586,"alys":4587,"Ġinh":4588,"Ġinn":4589,"Ġbon":4590,"Ġbar":4591,"Ġbring":4592,"Ġbranch":4593,"Ġbott":4594,"Ġbodies":4595,"asc":4596,"Ġdated":4597,"Ġdomin":4598,"icing":4599,"road":4600,"roup":4601,"Ġmun":4602,"Ġmph":4603,"Ġmouth":4604,"Ġmuseum":4605,"Ġmumm":4606,"ĠTri":4607,"ĠTroph":4608,"ĠTatt":4609,"ĠTreasury":4610,"Ġrese":4611,"lection":4612,"oud":4613,"Ġthrill":4614,"Ġthirty":4615,"Ġgather":4616,"stead":4617,"amil":4618,"Ġnorm":4619,"Ġlit":4620,"Ġlang":4621,"ĠCO":4622,"ĠCrit":4623,"ĠCreek":4624,"adem":4625,"adway":4626,"irt":4627,"irid":4628,"ĠTheir":4629,"otional":4630,"idance":4631,"ĠMall":4632,"ĠMoth":4633,"ĠMandatory":4634,"ayed":4635,"aying":4636,"ĠBay":4637,"ĠBest":4638,"ette":4639,"ĠIHL":4640,"Ġstra":4641,"Ġstore":4642,"Ġstreet":4643,"Ġstreng":4644,"utiny":4645,"Ġaltern":4646,"tery":4647,"ĠFilm":4648,"ĠPl":4649,"ĠProm":4650,"ĠPist":4651,"ĠPip":4652,"ĠPorf":4653,"veral":4654,"ĠHa":4655,"ĠHann":4656,"raver":4657,"ĠJup":4658,"ĠJazz":4659,"ĠNeb":4660,"Ġwhite":4661,"Ġseat":4662,"Ġsevent":4663,"ĠGard":4664,"ĠGreek":4665,"ĠRad":4666,"Ġanime":4667,"Ġanti":4668,"Ġanger":4669,"Ġconver":4670,"ĠDen":4671,"ĠDis":4672,"emark":4673,"ĠEl":4674,"ĠWing":4675,"ĠWind":4676,"ĠWales":4677,"agu":4678,"ĠLim":4679,"ĠLombard":4680,"aine":4681,"resents":4682,"Ġcoming":4683,"ocr":4684,"Ġproved":4685,"Ġpropos":4686,"ighters":4687,"Ġorn":4688,"ĠOff":4689,"Ġvo":4690,"Ġvol":4691,"Ġvess":4692,"Ġvoted":4693,"Ġcham":4694,"Ġchann":4695,"Ġchurch":4696,"quar":4697,"ĠUN":4698,"Ġexten":4699,"Ġexamples":4700,"apes":4701,"Ġyet":4702,"ĠKate":4703,"ĠKhan":4704,"ĠKonkan":4705,"ĠVideo":4706,"Ġkey":4707,"Ġrecall":4708,"ĠChief":4709,"eller":4710,"Ġperm":4711,"Ġperfor":4712,"Ġpermitted":4713,"Ġpercussion":4714,"Ġunp":4715,"Ġuniform":4716,"Ġroyal":4717,"Ġairship":4718,"ector":4719,"Ġ48":4720,"Ġ400":4721,"izations":4722,"Ġscr":4723,"Ġsched":4724,"Ġscale":4725,"oke":4726,"oked":4727,"ishvara":4728,"Ġwhether":4729,"acted":4730,"Ġenc":4731,"Ġens":4732,"Ġensemble":4733,"Ġdism":4734,"Ġdisapp":4735,"Ġ51":4736,"Ġaground":4737,"teen":4738,"teenth":4739,"ĠThough":4740,"reath":4741,"Ġneck":4742,"Ġresults":4743,"Ġoutbreak":4744,"Ġbasis":4745,"ĠSha":4746,"ĠShort":4747,"Ġspend":4748,"Ġremember":4749,"Ġremoved":4750,"Ġteammates":4751,"Ġ62":4752,"Ġ64":4753,"Ġgross":4754,"ĠUnl":4755,"Ġfinan":4756,"Ġformal":4757,"Ġrepresents":4758,"ĠSecret":4759,"ĠSeveral":4760,"Ġunderst":4761,"Ġinterse":4762,"Ġinteraction":4763,"Ġcenturies":4764,"Ġpries":4765,"ĠAnton":4766,"Ġsuppl":4767,"Ġsuppor":4768,"Ġdecisions":4769,"Ġproduct":4770,"Ġproduce":4771,"ĠNewsted":4772,"Ġdivided":4773,"Ġknow":4774,"Ġsole":4775,"Ġending":4776,"onega":4777,"Ġbetaine":4778,"ashtra":4779,"Ġsubstit":4780,"aja":4781,"Ġbroke":4782,"orns":4783,"Ġtrain":4784,"Ġtraffic":4785,"Ġperspect":4786,"Ġentered":4787,"Ġ1921":4788,"Ġ1925":4789,"Ġdemo":4790,"Ġguest":4791,"Ġguidance":4792,"Ġmemorial":4793,"Ġlocation":4794,"Ġ1863":4795,"ĠBeau":4796,"Ġfilms":4797,"Ġmusician":4798,"Ġcontinues":4799,"struct":4800,"cope":4801,"pedo":4802,"pedition":4803,"Ġportray":4804,"Ġ1940":4805,"Ġ1941":4806,"Ġ1943":4807,"ĠWarne":4808,"Ġtrademark":4809,"Ġfounded":4810,"Ġgovernor":4811,"Ġstatue":4812,"Ġimportance":4813,"Ġmoderate":4814,"Ġrealm":4815,"ĠAdri":4816,"Ġprotest":4817,"Ġengines":4818,"Ġ1937":4819,"Ġmissed":4820,"Ġrequire":4821,"Ġinstance":4822,"Ġepithe":4823,"ĠGuild":4824,"Ġsixth":4825,"Ġcert":4826,"Ġequivalent":4827,"Ġstrict":4828,"ĠOrigin":4829,"Ġpreviously":4830,"ĠHeritage":4831,"Ġorganization":4832,"Ġmonths":4833,"Ġattacks":4834,"Ġlevels":4835,"Ġskin":4836,"Ġoccas":4837,"Ġfuner":4838,"ynastic":4839,"ĠJuÃ¡rez":4840,"Ġ1950":4841,"Ġtracks":4842,"lane":4843,"Ġindustrial":4844,"Ġsulfonium":4845,"Ġolder":4846,"Ġdrawn":4847,"Ġseeing":4848,"Ġfactors":4849,"Ġdiam":4850,"ĠWeehaw":4851,"Ġvalid":4852,"Ġpossess":4853,"ĠMichaels":4854,"Ġmarried":4855,"Ġschools":4856,"ĠPola":4857,"Ġshortly":4858,"Ġruled":4859,"Ġlooking":4860,"ĠGeorge":4861,"ehyd":4862,"ĠMetal":4863,"Ġconnect":4864,"Ġtwent":4865,"Ġtwice":4866,"ĠMario":4867,"Ġsteals":4868,"Ġstrike":4869,"Ġchanged":4870,"Ġdeclined":4871,"Ġofficials":4872,"Ġchem":4873,"Ġpaint":4874,"ommission":4875,"Ġnarrow":4876,"Ġbuildings":4877,"Ġsurvey":4878,"Ġfrequ":4879,"ĠSeries":4880,"Ġranked":4881,"Ġexistence":4882,"Ġclosely":4883,"Ġpurchase":4884,"Ġescape":4885,"Ġsatisf":4886,"Ġcaused":4887,"Ġeye":4888,"Ġsupply":4889,"Ġmaintained":4890,"Ġdiscovery":4891,"Ġdiscovered":4892,"Ġwidely":4893,"Ġcalling":4894,"Ġinspiration":4895,"Ġglass":4896,"ĠMaury":4897,"ĠBobcats":4898,"ĠGhost":4899,"ĠGaruda":4900,"Ġcommented":4901,"Ġargued":4902,"Ġ1889":4903,"ĠDefensive":4904,"Ġfavorite":4905,"Ġdemonstrated":4906,"Ġarchitecture":4907,"Ġtrees":4908,"Ġcases":4909,"Ġcasem":4910,"Ġcaptured":4911,"ĠSuicide":4912,"ĠMilitary":4913,"Ġsteps":4914,"Ġvictory":4915,"Ġkindergart":4916,"Ġultimately":4917,"Ġelector":4918,"ĠJapanese":4919,"ĠGods":4920,"Ġobjects":4921,"Ġceremony":4922,"ĠHornets":4923,"Ġletter":4924,"Ġagreed":4925,"Ġcommissioned":4926,"Ġprepared":4927,"Ġmeasure":4928,"Ġgradu":4929,"Ġtorpedo":4930,"Ġmicrolights":4931,"ĠTimor":4932,"ĠDivision":4933,"ĠLanka":4934,"ĠThomas":4935,"oselective":4936,"ĠAgustÃŃn":4937,"Ġdreadnought":4938,"iÄĩ":4939,"Ġsanct":4940,"Ġbriefly":4941,"Ġreinforce":4942,"ĠMiddle":4943,"ĠOutstanding":4944,"ĠOperations":4945,"ĠOfficer":4946,"ĠDepartment":4947,"Ġepoxides":4948,"Ġbehavi":4949,"ĠEdmund":4950,"ĠQueen":4951,"ĠDahlonega":4952,"ĠDouglas":4953,"Ã³n":4954,"Ġdocument":4955,"Ġmentioned":4956,"Ġeagle":4957,"ĠPacific":4958,"Ġadopted":4959,"ibrary":4960,"Ġinterpre":4961,"Ġdistinguished":4962,"Ġcompletely":4963,"ĠGuardian":4964,"Ġcorresponding":4965,"Ġnarrative":4966,"Ġcrown":4967,"Ġcrescent":4968,"Ġdrama":4969,"Ġreversibility":4970,"ĠPettit":4971,"ĠHartford":4972,"Ġconstructed":4973,"ĠIntelligence":4974,"Ġunusual":4975,"Ġflintlock":4976,"Ġconspirators":4977,"Ġeducation":4978,"Ġfundamental":4979,"Ġicon":4980,"ĠTrophy":4981,"ĠTattnall":4982,"Ġthriller":4983,"Ġlangu":4984,"ĠMallory":4985,"ĠPistons":4986,"ĠPorfir":4987,"ĠHanneman":4988,"ĠNebraska":4989,"Ġperformer":4990,"ĠWeehawken":4991,"Ġkindergarten":4992,"ES":4993,"VD":4994,"ault":4995,"be":4996,"bour":4997,"board":4998,"dress":4999,"ex":5000,"ecess":5001,"fect":5002,"ging":5003,"hi":5004,"hak":5005,"ih":5006,"iet":5007,"iew":5008,"ience":5009,"khen":5010,"ma":5011,"mn":5012,"mosp":5013,"nes":5014,"oo":5015,"oen":5016,"ooth":5017,"pet":5018,"pri":5019,"pass":5020,"rick":5021,"rarian":5022,"set":5023,"site":5024,"ski":5025,"to":5026,"uit":5027,"uff":5028,"vy":5029,"vil":5030,"wa":5031,"wal":5032,"watch":5033,"ya":5034,"za":5035,"±ol":5036,"Ã±ol":5037,"Ġ!":5038,"Ġrom":5039,"Ġurb":5040,"Ġtun":5041,"Ġtail":5042,"Ġtried":5043,"Ġtask":5044,"hered":5045,"Ġawards":5046,"ino":5047,"inery":5048,"ersey":5049,"rey":5050,"reen":5051,"Ġsitting":5052,"Ġwant":5053,"Ġwood":5054,"Ġwords":5055,"Ġwestern":5056,"ato":5057,"atin":5058,"orter":5059,"itz":5060,"itor":5061,"itation":5062,"itively":5063,"itwatch":5064,"Ġcust":5065,"Ġcults":5066,"Ġfit":5067,"Ġfan":5068,"Ġfres":5069,"Ġflu":5070,"ishes":5071,"esters":5072,"arth":5073,"arry":5074,"Ġpun":5075,"Ġpill":5076,"Ġphen":5077,"Ġpicture":5078,"Ġinner":5079,"Ġbow":5080,"Ġbip":5081,"Ġblu":5082,"Ġbull":5083,"Ġboat":5084,"Ġbillion":5085,"Ġboard":5086,"Ġbought":5087,"Ġblend":5088,"Ġdim":5089,"Ġdire":5090,"icate":5091,"Ġmat":5092,"Ġmis":5093,"Ġmess":5094,"Ġmatch":5095,"Ġmatter":5096,"Ġmaster":5097,"Ġhit":5098,"Ġhous":5099,"ĠTre":5100,"ĠTom":5101,"Ġrend":5102,"Ġrepe":5103,"Ġredu":5104,"Ġreader":5105,"Ġresemb":5106,"Ġreduced":5107,"ouver":5108,"Ġthin":5109,"Ġthing":5110,"Ġthrow":5111,"Ġthousand":5112,"Ġgot":5113,"Ġgrand":5114,"ĠAle":5115,"ĠArea":5116,"ĠSw":5117,"ĠSou":5118,"ĠSpe":5119,"ĠSab":5120,"ĠSak":5121,"ĠSound":5122,"ĠSyd":5123,"ĠSatur":5124,"stances":5125,"Ġnav":5126,"Ġnone":5127,"Ġnomination":5128,"Ġnuc":5129,"Ġná¹¯":5130,"Ġlion":5131,"Ġlived":5132,"Ġlove":5133,"Ġlik":5134,"Ġlighter":5135,"ĠCr":5136,"ĠCas":5137,"ĠCle":5138,"ĠCur":5139,"ĠCons":5140,"ĠCath":5141,"ĠCaval":5142,"aded":5143,"Ġeas":5144,"olis":5145,"olitan":5146,"Ġbeg":5147,"Ġasc":5148,"ids":5149,"ĠMod":5150,"ĠMah":5151,"ĠMike":5152,"urra":5153,"ĠBol":5154,"ĠBack":5155,"etr":5156,"eting":5157,"Ġheard":5158,"utions":5159,"uled":5160,"Ġalread":5161,"tered":5162,"ĠFederal":5163,"ĠFitwatch":5164,"ĠPart":5165,"ĠPark":5166,"ĠPaul":5167,"ĠHot":5168,"ĠHill":5169,"raham":5170,"ĠJac":5171,"ĠJul":5172,"ĠJose":5173,"ĠJones":5174,"ĠNub":5175,"uns":5176,"umber":5177,"Ġseem":5178,"ĠGr":5179,"ĠGang":5180,"ĠRub":5181,"ĠRuss":5182,"ĠRaph":5183,"Ġanalys":5184,"Ġatmosp":5185,"ĠDel":5186,"ĠDVD":5187,"ĠEven":5188,"ĠWis":5189,"ĠWeb":5190,"ĠWadd":5191,"agn":5192,"ĠLord":5193,"ĠLatin":5194,"ĠLarry":5195,"aint":5196,"ript":5197,"rips":5198,"ocated":5199,"ocity":5200,"Ġprol":5201,"Ġprobably":5202,"osen":5203,"oslav":5204,"iff":5205,"upa":5206,"Ġshared":5207,"ĠInter":5208,"ĠInstead":5209,"ĠOf":5210,"ĠOpen":5211,"ĠOcean":5212,"Ġvic":5213,"Ġvac":5214,"Ġveter":5215,"Ġvote":5216,"antour":5217,"aburra":5218,"Ġrit":5219,"Ġran":5220,"Ġrise":5221,"Ġrights":5222,"Ġrpg":5223,"Ġchosen":5224,"ipp":5225,"ips":5226,"ipal":5227,"opular":5228,"under":5229,"undial":5230,"aked":5231,"mented":5232,"berg":5233,"bert":5234,"ĠKi":5235,"ĠKur":5236,"ĠKook":5237,"ĠVan":5238,"ĠVir":5239,"ĠVanc":5240,"Ġrecalled":5241,"ogen":5242,"ĠChap":5243,"ĠChampions":5244,"ĠChurch":5245,"Ġworn":5246,"ellion":5247,"ĠHeavy":5248,"Ġpercent":5249,"Ġunable":5250,"Ġrook":5251,"ounted":5252,"Ġapg":5253,"Ġ49":5254,"Ġcontact":5255,"Ġaband":5256,"Ġintention":5257,"omech":5258,"izing":5259,"Ġimm":5260,"Ġsche":5261,"Ġscore":5262,"Ġscient":5263,"Ġscene":5264,"okes":5265,"icted":5266,"Ġenl":5267,"Ġencl":5268,"Ġenjoy":5269,"Ġdiss":5270,"Ġagency":5271,"Ġagrarian":5272,"Ġcloth":5273,"Ġclothes":5274,"tection":5275,"Ġpartly":5276,"Ġregions":5277,"Ġregarded":5278,"Ġcompared":5279,"ĠYou":5280,"ĠYug":5281,"Ġneither":5282,"ĠRevolution":5283,"Ġflat":5284,"Ġflow":5285,"Ġflown":5286,"Ġflowers":5287,"Ġprepar":5288,"Ġpremi":5289,"Ġremun":5290,"ude":5291,"Ġ600":5292,"ibly":5293,"ĠUniverse":5294,"ĠDeities":5295,"Ġreports":5296,"Ġ70":5297,"Ġ77":5298,"Ġconservation":5299,"Ġ800":5300,"Ġspring":5301,"Ġinterim":5302,"Ġinterests":5303,"formation":5304,"Ġassist":5305,"Ġprison":5306,"inder":5307,"ĠOnce":5308,"issed":5309,"Ġdecades":5310,"Ġdecommission":5311,"Ġproducer":5312,"Ġ91":5313,"Ġacclaim":5314,"Ġknowledge":5315,"Ġamid":5316,"endar":5317,"enders":5318,"Ġoperated":5319,"Ġmechan":5320,"Ġwritings":5321,"Ġbetter":5322,"ĠAtum":5323,"Ġreleases":5324,"Ġsurpr":5325,"Ġarmored":5326,"Ġcob":5327,"Ġcoal":5328,"Ġminute":5329,"rench":5330,"Ġsmooth":5331,"Ġmonothe":5332,"Ġsubstant":5333,"Ġbrown":5334,"Ġsevere":5335,"Ġdesigns":5336,"Ġtrained":5337,"Ġreception":5338,"Ġreceiving":5339,"Ġhumor":5340,"Ġheaded":5341,"Ġheaddress":5342,"Ġquest":5343,"Ġmoves":5344,"Ġmovie":5345,"ĠAustria":5346,"ĠAllen":5347,"Ġofficially":5348,"Ġelev":5349,"anks":5350,"Ġimpression":5351,"Ġpowerful":5352,"Ġserves":5353,"Ġworldwide":5354,"Ġ1910":5355,"Ġrail":5356,"ĠAmy":5357,"omena":5358,"Ġspecim":5359,"Ġsyncret":5360,"Ġannual":5361,"Ġtempor":5362,"Ġlonger":5363,"ĠLead":5364,"ĠEnt":5365,"Ġportion":5366,"ĠPhoen":5367,"Ġ1945":5368,"Ġdistance":5369,"Ġpersonified":5370,"Ġpersonnel":5371,"Ġfeaturing":5372,"Ġexpensive":5373,"Ġexpanded":5374,"liding":5375,"Ġvert":5376,"Ġstatistics":5377,"Ġcomplete":5378,"Ġclasses":5379,"ĠAdm":5380,"Ġprotesters":5381,"ĠCommon":5382,"Ġ1931":5383,"Ġmission":5384,"Ġcircular":5385,"Ġfemales":5386,"Ġgreatly":5387,"ĠScot":5388,"ĠMean":5389,"ĠFlight":5390,"Ġcommerce":5391,"Ġbooks":5392,"Ġstoryline":5393,"Ġslightly":5394,"Ġcrime":5395,"Ġcrash":5396,"Ġcovered":5397,"Ġdirected":5398,"Ġdirectly":5399,"Ġallows":5400,"Ġcommunication":5401,"Ġfacing":5402,"Ġlisting":5403,"Ġevening":5404,"Ġdealership":5405,"Ġorganic":5406,"ĠAssociated":5407,"Ġelite":5408,"Ġelder":5409,"Ġelimin":5410,"Ġauthorized":5411,"Ġattendant":5412,"Ġattendants":5413,"Ġconfront":5414,"Ġorders":5415,"Ġcorruption":5416,"Ġbridge":5417,"Ġrounds":5418,"Ġoccup":5419,"Ġ1850":5420,"Ġ1854":5421,"Ġhistorians":5422,"Ġtitled":5423,"Ġcultural":5424,"Ġdenied":5425,"ĠAndhak":5426,"Ġgrowing":5427,"Ġfiction":5428,"Ġstandard":5429,"Ġ1972":5430,"ĠUpper":5431,"apsed":5432,"Ġsuggests":5433,"Ġworshipped":5434,"Ġdiagn":5435,"Ġrebellion":5436,"ĠAbraham":5437,"ĠSenators":5438,"ĠBroadway":5439,"Ġedition":5440,"Ġrenamed":5441,"ĠPeriod":5442,"ĠRichards":5443,"Ġviolent":5444,"Ġfarm":5445,"Ġsuccessfully":5446,"Ġtriple":5447,"Ġtypically":5448,"Ġchampionships":5449,"Ġsubsequent":5450,"Ġepisodes":5451,"Ġsignificantly":5452,"Ġera":5453,"Ġidentified":5454,"Ġcourty":5455,"Ġinjured":5456,"ĠAgain":5457,"Ġsteam":5458,"Ġdeclared":5459,"Ġdeparted":5460,"Ġbrothers":5461,"Ġrecognized":5462,"Ġpainted":5463,"ĠCoast":5464,"ĠBridge":5465,"Ġregulated":5466,"Ġregulatory":5467,"Ġwinds":5468,"Ġpounds":5469,"Ġpractice":5470,"rophic":5471,"ĠSerb":5472,"ĠSimilar":5473,"Ġmethyl":5474,"Ġindividuals":5475,"Ġcaus":5476,"ospital":5477,"Ġexperience":5478,"Ġpredecess":5479,"Ġreasons":5480,"Ġrestrictions":5481,"Ġdeployed":5482,"ĠGharap":5483,"ĠExpedition":5484,"Ġaccompl":5485,"Ġconcerns":5486,"Ġconcerned":5487,"Ġweapon":5488,"Ġresponsibility":5489,"Ġillustrated":5490,"ĠXIII":5491,"Ġweek":5492,"Ġhonor":5493,"ĠSuper":5494,"ĠGlobe":5495,"Ġpolythe":5496,"Ġultimate":5497,"Ġopin":5498,"ĠMemorial":5499,"ĠJapan":5500,"Ġ1806":5501,"ĠCommander":5502,"Ġestablishment":5503,"ĠAfrican":5504,"ĠAerodrom":5505,"ĠMonten":5506,"Ġdeadline":5507,"Ġexpected":5508,"Ġburned":5509,"ĠBiomech":5510,"Ġheavily":5511,"Ġstopped":5512,"Ġproperty":5513,"Ġdeprecating":5514,"Ġcollege":5515,"Ġcirculate":5516,"Ġenvironmental":5517,"ĠEntertainment":5518,"Ġtorture":5519,"Ġcataly":5520,"Ġbenef":5521,"ĠSarah":5522,"ĠCorps":5523,"Ġwithdra":5524,"Ġanchor":5525,"ĠDuat":5526,"Ġunconstitutional":5527,"Ġenemy":5528,"Ġmanifestations":5529,"Ġstructure":5530,"ĠAppeals":5531,"Ġcosmos":5532,"Ġdaughter":5533,"ĠMorelos":5534,"ĠFourteenth":5535,"ĠHenry":5536,"ĠInfinity":5537,"Ġcompany":5538,"Ġnewspaper":5539,"Ġobtained":5540,"Ġsubstrate":5541,"Ġquarter":5542,"Ġrainfall":5543,"ĠCharacters":5544,"stronomical":5545,"Ġexclusively":5546,"Ġfestival":5547,"Ġpaid":5548,"Ġpiston":5549,"Ġdedicated":5550,"ĠMachine":5551,"ĠBudd":5552,"ĠPersonal":5553,"ĠHunwick":5554,"Ġconnection":5555,"Ġprocured":5556,"Ġrecommended":5557,"Ġpreserved":5558,"Ġcircumstances":5559,"Ġpassengers":5560,"Ġdelivery":5561,"ymns":5562,"Ġrebounds":5563,"ĠWeekly":5564,"Ġdrums":5565,"Ġhappened":5566,"Ġazirid":5567,"Ġwebsite":5568,"Ġcitizens":5569,"Ġfragments":5570,"Ġbottom":5571,"Ġresearch":5572,"Ġstrength":5573,"ĠWinds":5574,"ĠLimantour":5575,"ĠLombardo":5576,"Ġchannel":5577,"quarters":5578,"ĠUNES":5579,"Ġextensive":5580,"Ġscheduled":5581,"Ġensure":5582,"ĠShortly":5583,"ĠSecretary":5584,"Ġpriests":5585,"Ġtwenty":5586,"ĠMauryas":5587,"Ġbehaviour":5588,"Ġinterpreted":5589,"Ġlanguage":5590,"Ġurban":5591,"Ġphenomena":5592,"Ġdirection":5593,"ĠSydney":5594,"ĠSaturday":5595,"Ġnucle":5596,"Ġná¹¯r":5597,"ĠCatholic":5598,"ĠBackground":5599,"Ġalready":5600,"ĠRubin":5601,"ĠRussell":5602,"ĠRaphael":5603,"ĠWebb":5604,"ĠKookaburra":5605,"ĠVancouver":5606,"Ġrookie":5607,"ĠYugoslav":5608,"ĠPhoenix":5609,"ĠBridgeport":5610,"ĠGharapuri":5611,"ĠUNESCO":5612,"69":5613,"CA":5614,"IM":5615,"PL":5616,"SI":5617,"SAR":5618,"aith":5619,"bo":5620,"bar":5621,"bury":5622,"boat":5623,"body":5624,"ca":5625,"can":5626,"cil":5627,"cel":5628,"ding":5629,"dehyd":5630,"een":5631,"fl":5632,"full":5633,"gn":5634,"gon":5635,"gren":5636,"hat":5637,"hile":5638,"hym":5639,"ii":5640,"iac":5641,"ios":5642,"iations":5643,"ienn":5644,"jÅį":5645,"lake":5646,"niew":5647,"ply":5648,"pson":5649,"rum":5650,"rity":5651,"rash":5652,"tar":5653,"track":5654,"ua":5655,"ux":5656,"uis":5657,"uky":5658,"vings":5659,"wise":5660,"while":5661,"yth":5662,"zer":5663,"ªãĤ":5664,"æĪ":5665,"Ġ+":5666,"Ġice":5667,"Ġtact":5668,"Ġtwin":5669,"heast":5670,"Ġack":5671,"ini":5672,"era":5673,"err":5674,"eration":5675,"eria":5676,"recht":5677,"Ġsq":5678,"Ġsus":5679,"Ġspl":5680,"Ġswe":5681,"Ġsides":5682,"edom":5683,"Ġod":5684,"Ġwit":5685,"Ġwatch":5686,"Ġwants":5687,"atus":5688,"aters":5689,"atings":5690,"atform":5691,"atisf":5692,"ora":5693,"oric":5694,"orad":5695,"oria":5696,"orbed":5697,"ito":5698,"itt":5699,"itia":5700,"itled":5701,"Ġcab":5702,"Ġcop":5703,"Ġcorn":5704,"Ġcrow":5705,"Ġciting":5706,"Ġcells":5707,"Ġcycl":5708,"Ġfou":5709,"Ġfate":5710,"Ġfant":5711,"Ġfell":5712,"Ġfold":5713,"Ġfuel":5714,"Ġfaith":5715,"arf":5716,"ari":5717,"arts":5718,"Ġpack":5719,"Ġpap":5720,"Ġpull":5721,"Ġpage":5722,"Ġpushed":5723,"alers":5724,"aluky":5725,"Ġinvent":5726,"Ġbom":5727,"Ġbond":5728,"Ġborder":5729,"Ġdance":5730,"Ġdress":5731,"Ġdang":5732,"icist":5733,"icity":5734,"icient":5735,"Ġtoward":5736,"Ġtoday":5737,"roit":5738,"roke":5739,"rovers":5740,"Ġmaps":5741,"Ġmotion":5742,"Ġhy":5743,"Ġhol":5744,"Ġhired":5745,"Ġhockey":5746,"Ġhabit":5747,"Ġhospital":5748,"ĠTrib":5749,"ĠTrans":5750,"ĠTina":5751,"Ġrev":5752,"Ġreally":5753,"Ġreject":5754,"Ġreven":5755,"Ġresemble":5756,"lete":5757,"leans":5758,"outs":5759,"Ġthrash":5760,"Ġgraph":5761,"Ġgained":5762,"Ġgamb":5763,"enti":5764,"ĠAD":5765,"ĠAut":5766,"ĠAgg":5767,"ĠAuthor":5768,"iled":5769,"ilian":5770,"ĠSil":5771,"ĠSuch":5772,"ĠSports":5773,"ĠSisters":5774,"ĠSummer":5775,"ĠSumm":5776,"ston":5777,"stained":5778,"elocity":5779,"oms":5780,"aming":5781,"amity":5782,"aments":5783,"amden":5784,"Ġnor":5785,"Ġnort":5786,"Ġnative":5787,"Ġlad":5788,"Ġlog":5789,"Ġlock":5790,"Ġleng":5791,"Ġload":5792,"ĠCess":5793,"ĠCoun":5794,"ĠCoy":5795,"ĠCamp":5796,"ĠCool":5797,"ĠCirc":5798,"ĠCelt":5799,"ĠCape":5800,"ĠCamden":5801,"ols":5802,"oler":5803,"Ġwasn":5804,"ivals":5805,"oto":5806,"oting":5807,"imal":5808,"imoto":5809,"Ġbeat":5810,"Ġbear":5811,"Ġbeam":5812,"iger":5813,"igation":5814,"acement":5815,"idas":5816,"ĠMes":5817,"ĠMas":5818,"ĠMart":5819,"ĠMass":5820,"ĠMark":5821,"ĠMount":5822,"ĠMaria":5823,"ĠMama":5824,"urst":5825,"ĠBel":5826,"ĠBry":5827,"ĠBoy":5828,"ĠBern":5829,"ĠBrian":5830,"ĠBunder":5831,"etroit":5832,"Ġheart":5833,"Ġhealth":5834,"Ġstal":5835,"Ġsting":5836,"Ġstone":5837,"Ġstring":5838,"ulg":5839,"Ġalle":5840,"Ġaldehyd":5841,"ĠFall":5842,"ĠFame":5843,"ĠFore":5844,"ĠFort":5845,"ĠFrench":5846,"Ġdeleg":5847,"Ġdeemed":5848,"ĠPre":5849,"ĠPen":5850,"ĠPict":5851,"verton":5852,"ĠHard":5853,"ĠHome":5854,"ĠHind":5855,"ĠJo":5856,"ĠJam":5857,"ĠJason":5858,"ĠJerry":5859,"ĠNor":5860,"ĠNear":5861,"ĠNile":5862,"ĠNah":5863,"unch":5864,"umes":5865,"umption":5866,"Ġsegment":5867,"Ġsequel":5868,"ĠGob":5869,"ĠGrant":5870,"ĠRes":5871,"ĠRet":5872,"ĠRaven":5873,"ĠRoad":5874,"ĠRector":5875,"ĠRhym":5876,"Ġanthrop":5877,"Ġconv":5878,"Ġconcept":5879,"Ġconstant":5880,"ĠDH":5881,"ĠDue":5882,"ĠDetroit":5883,"change":5884,"ĠEsta":5885,"ĠWild":5886,"ĠWilm":5887,"ĠWald":5888,"hers":5889,"ĠLt":5890,"ĠList":5891,"ĠLieutenant":5892,"Ġcomed":5893,"Ġcomic":5894,"Ġplant":5895,"Ġplacing":5896,"Ġplatform":5897,"Ġprove":5898,"Ġproof":5899,"Ġprospect":5900,"Ġprotection":5901,"ptic":5902,"ift":5903,"ighth":5904,"Ġshut":5905,"ĠOver":5906,"ruce":5907,"ruction":5908,"eston":5909,"Ġvelocity":5910,"abric":5911,"Ġrar":5912,"Ġrival":5913,"Ġratings":5914,"ipl":5915,"iah":5916,"aks":5917,"aker":5918,"appe":5919,"Ġsuc":5920,"Ġsustained":5921,"ctioned":5922,"Ġyouth":5923,"Ġyield":5924,"Ġyellow":5925,"ĠKick":5926,"ĠStud":5927,"ĠStone":5928,"ĠVienn":5929,"Ġrecru":5930,"Ġplays":5931,"ĠChaluky":5932,"pled":5933,"ranged":5934,"Ġperfect":5935,"Ġunivers":5936,"Ġuniverse":5937,"Ġrow":5938,"Ġrough":5939,"Ġroster":5940,"Ġairworthiness":5941,"Ġ183":5942,"Ġ42":5943,"Ġ46":5944,"Ġcontent":5945,"Ġcontem":5946,"Ġcontain":5947,"perial":5948,"Ġimpl":5949,"Ġimmedi":5950,"ishing":5951,"mercial":5952,"aching":5953,"Ġenvision":5954,"Ġdisappe":5955,"Ġotherwise":5956,"Ġ59":5957,"erve":5958,"Ġoffensive":5959,"Ġshells":5960,"Ġjets":5961,"Ġjump":5962,"Ġpartially":5963,"ultane":5964,"ĠThrough":5965,"ĠThird":5966,"ĠYet":5967,"Ġadj":5968,"Ġadm":5969,"ĠAlong":5970,"ĠAlso":5971,"ĠEgyptolog":5972,"arked":5973,"Ġflag":5974,"Ġprem":5975,"cked":5976,"ĠUnit":5977,"Ġrelating":5978,"Ġrelatively":5979,"Ġrepair":5980,"Ġ700":5981,"Ġconsult":5982,"Ġconsists":5983,"Ġconscious":5984,"Ġ82":5985,"Ġfourteen":5986,"veland":5987,"Ġretained":5988,"Ġsports":5989,"Ġspores":5990,"ĠSex":5991,"ĠSega":5992,"Ġcharges":5993,"Ġunderstanding":5994,"Ġassoci":5995,"Ġassociated":5996,"Ġassault":5997,"Ġcarrying":5998,"Ġcarvings":5999,"Ġpriv":6000,"ĠAnti":6001,"ributes":6002,"ĠOnly":6003,"Ġdecade":6004,"Ġdecline":6005,"Ġproduces":6006,"Ġattached":6007,"Ġattributed":6008,"Ġearned":6009,"ĠGASAR":6010,"Ġ90":6011,"Ġ99":6012,"Ġaccused":6013,"Ġdivision":6014,"Ġknew":6015,"Ġknots":6016,"ending":6017,"Ġoperate":6018,"Ġpolicing":6019,"Ġappeal":6020,"Ġnumerous":6021,"Ġcann":6022,"volved":6023,"azers":6024,"ashion":6025,"Ġmonuments":6026,"Ġsubmar":6027,"Ġbelonged":6028,"ÃŃa":6029,"Ġtraits":6030,"Ġreceive":6031,"Ġ1980":6032,"Ġquant":6033,"Ġpersu":6034,"ĠCommercial":6035,"Ġhighway":6036,"Ġhighlight":6037,"ualties":6038,"Ġtransl":6039,"Ġdiscern":6040,"obi":6041,"Ġpowered":6042,"Ġblog":6043,"Ġwins":6044,"Ġdidn":6045,"Ġlocations":6046,"Ġ1919":6047,"ĠBlazers":6048,"Ġ1860":6049,"Ġ1864":6050,"Ġcreate":6051,"ĠAmad":6052,"ĠAmong":6053,"ĠAirport":6054,"Ġaerop":6055,"Ġ150":6056,"Ġ158":6057,"Ġannually":6058,"Ġmyster":6059,"ĠWhite":6060,"ĠWhalers":6061,"Ġthoughts":6062,"ĠCross":6063,"ĠBlues":6064,"Ġpurs":6065,"ĠJackson":6066,"Ġ1948":6067,"Ġvarian":6068,"Ġbandmates":6069,"Ġsuccessor":6070,"Ġcolor":6071,"Ġexpans":6072,"Ġappearing":6073,"Ġapproved":6074,"anner":6075,"Ġpromote":6076,"Ġpromulg":6077,"Ġreviewer":6078,"Ġweight":6079,"Ġpopulation":6080,"ĠBritain":6081,"Ġ110":6082,"Ġ1933":6083,"Ġ1938":6084,"ennis":6085,"Ġdeter":6086,"Ġrequest":6087,"Ġartists":6088,"Ġartwork":6089,"Ġinstalled":6090,"Ġsinger":6091,"Ġinvolves":6092,"ometric":6093,"oxonium":6094,"Ġsimply":6095,"Ġlimit":6096,"Ġstorylines":6097,"ĠFrance":6098,"Ġsolar":6099,"Ġsolid":6100,"Ġcrimes":6101,"Ġcovers":6102,"ropolitan":6103,"Ġequated":6104,"Ġstrateg":6105,"Ġstudent":6106,"ĠArkadelphia":6107,"Ġfaces":6108,"Ġpostc":6109,"Ġpassing":6110,"ĠOrd":6111,"ĠOrgan":6112,"ĠOrder":6113,"ĠOrleans":6114,"Ġlegal":6115,"Ġresulting":6116,"ypse":6117,"Ġdeaths":6118,"Ġorganised":6119,"Ġorganizations":6120,"ĠAtlantic":6121,"ĠJews":6122,"Ġtraditions":6123,"Ġgrant":6124,"Ġgranted":6125,"ĠHungary":6126,"Ġattacked":6127,"Ġfootage":6128,"Ġdestruction":6129,"Ġstyles":6130,"Ġ1960":6131,"Ġcombination":6132,"Ġlineup":6133,"Ġprofile":6134,"Ġhistoric":6135,"eorological":6136,"Ġopposed":6137,"Ġopponents":6138,"Ġculture":6139,"Ġreplacement":6140,"Ġ240":6141,"Ġcommonly":6142,"Ġsulfoxonium":6143,"Ġdraped":6144,"Ġlanded":6145,"ĠUpon":6146,"Ġcriticism":6147,"Ġcriticized":6148,"Ġdiaster":6149,"ĠSenate":6150,"ĠSenjÅį":6151,"ĠMcC":6152,"ĠBrown":6153,"Ġvaluable":6154,"Ġrunning":6155,"Ġsuffering":6156,"ĠItaly":6157,"rison":6158,"ĠPerhaps":6159,"Ġearliest":6160,"Ġviolation":6161,"Ġviolated":6162,"Ġpieces":6163,"Ġrules":6164,"Ġlosses":6165,"Ġcruel":6166,"ĠCalif":6167,"Ġvisible":6168,"Ġimproved":6169,"ĠMexican":6170,"Ġstrongly":6171,"uki":6172,"ĠÂ²":6173,"Ġcollapsed":6174,"Ġfailing":6175,"ĠClass":6176,"ĠMetropolitan":6177,"Ġanimated":6178,"Ġanimals":6179,"Ã¡n":6180,"ĠPlaying":6181,"Ġconduct":6182,"Ġabsorbed":6183,"ĠRegular":6184,"Ġestimates":6185,"onto":6186,"Ġsituations":6187,"Ġrevolutionary":6188,"ĠCoach":6189,"Ġdevotion":6190,"ĠPreservation":6191,"Ġsurviving":6192,"Ġeffective":6193,"Ġsculptures":6194,"ĠPennsylvanian":6195,"Ġwindow":6196,"ĠSimon":6197,"Ġexcav":6198,"Ġexisting":6199,"Ġexplained":6200,"Ġclosure":6201,"Ġclaimed":6202,"Ġclaiming":6203,"Ġprincess":6204,"ĠCharleston":6205,"Ġescaped":6206,"ranto":6207,"Ġpanels":6208,"Ġmachinery":6209,"ophil":6210,"Ġmaintaining":6211,"Ġwider":6212,"Ġpredomin":6213,"Ġinspired":6214,"Ġtowns":6215,"ĠSmall":6216,"ethyl":6217,"Ġdeployment":6218,"ĠGallia":6219,"Ġadaptation":6220,"Ġresponsible":6221,"Ġwait":6222,"Ġwaist":6223,"Ġthreatened":6224,"ĠImperial":6225,"Ġkeepers":6226,"Ġnegot":6227,"Ġnegative":6228,"Ġbroadly":6229,"Ġviews":6230,"aeological":6231,"racks":6232,"Ġgenus":6233,"ĠSurvey":6234,"Ġstationed":6235,"Ġprogressive":6236,"Ġfinishing":6237,"Ġdetermine":6238,"Ġslowly":6239,"Ġphotographs":6240,"theless":6241,"ĠMedia":6242,"ĠHighway":6243,"Ġchoice":6244,"hma":6245,"ministr":6246,"ĠTemple":6247,"Ġliterature":6248,"ĠRelig":6249,"Ġshift":6250,"Ġspectrum":6251,"Ġambient":6252,"Ġacquired":6253,"Ġdefenseman":6254,"Ġstruggle":6255,"Ġcirculated":6256,"Ġreflecting":6257,"Ġlicensed":6258,"Ġlicensing":6259,"Ġdwarf":6260,"ĠToronto":6261,"Ġlinked":6262,"ĠMalone":6263,"urrection":6264,"ĠBaby":6265,"ĠPrior":6266,"Ġconcepts":6267,"ĠWalter":6268,"ocalypse":6269,"ĠOtranto":6270,"Ġradio":6271,"queline":6272,"Ġenantioselective":6273,"Ġsurrender":6274,"Ġsafety":6275,"Ġhelicopter":6276,"Ġhelicopters":6277,"ĠGreenaway":6278,"Ġpharaohs":6279,"cription":6280,"chestra":6281,"Ġhierarch":6282,"ĠTodd":6283,"Ġreverse":6284,"ĠBillboard":6285,"ĠBahrain":6286,"ĠPitlake":6287,"ĠDratch":6288,"ĠLaverton":6289,"ĠOlympic":6290,"Ġrescue":6291,"Ġimprovements":6292,"Ġaccompanied":6293,"ridges":6294,"Ġcartridges":6295,"Ġfuture":6296,"Ġbadly":6297,"Ġmoment":6298,"ouraged":6299,"Ġnominated":6300,"ĠBalagu":6301,"ĠBrahma":6302,"ĠHousefull":6303,"ĠRodman":6304,"Ġchalleng":6305,"ĠVictoria":6306,"Ġincorporated":6307,"ĠArchaeological":6308,"Ġapparently":6309,"Ġversions":6310,"Ġbrutality":6311,"Ġrenewed":6312,"Ġcruisers":6313,"ĠObservatory":6314,"Ġjewelry":6315,"Ġframe":6316,"Ġpantheon":6317,"Ġmunitions":6318,"ĠTriana":6319,"Ġstraight":6320,"ĠJupiter":6321,"Ġseventh":6322,"ĠGarden":6323,"Ġchambers":6324,"ĠAntonio":6325,"Ġsupplies":6326,"Ġperspective":6327,"Ġfunerary":6328,"Ġdiameter":6329,"Ġpaintings":6330,"Ġcasemate":6331,"Ġdocumentary":6332,"mnis":6333,"ville":6334,"Ġromantic":6335,"Ġtuning":6336,"Ġwooden":6337,"Ġpillars":6338,"ĠSouthern":6339,"ĠSabres":6340,"ĠSakimoto":6341,"ĠCasualties":6342,"ĠCleveland":6343,"ĠCurtis":6344,"Ġbegins":6345,"ĠBollywood":6346,"ĠJacqueline":6347,"ĠJoseph":6348,"ĠWisniew":6349,"Ġprolific":6350,"Ġveteran":6351,"ĠKurt":6352,"ĠChampionship":6353,"Ġenclosed":6354,"Ġdecommissioned":6355,"Ġcobra":6356,"Ġquestion":6357,"Ġelevated":6358,"ĠEntry":6359,"ĠAdmiral":6360,"Ġeliminated":6361,"Ġopinion":6362,"Ġbenefit":6363,"ĠBuddhist":6364,"Ġaziridines":6365,"Ġnucleophil":6366,"æĪ¦":6367,"Ġackn":6368,"Ġcabinet":6369,"Ġcrowd":6370,"Ġpageant":6371,"Ġgambling":6372,"Ġnortheast":6373,"Ġlength":6374,"ĠCessna":6375,"ĠCoyotes":6376,"ĠCeltics":6377,"ĠPictures":6378,"ĠHindman":6379,"ĠNahant":6380,"ĠGobrecht":6381,"ĠRhymes":6382,"ĠEstaÃ±ol":6383,"ĠWilmington":6384,"Ġimmediately":6385,"Ġmysterious":6386,"Ġstrategic":6387,"Ġdiastere":6388,"ĠBalaguer":6389,"ĠWisniewski":6390,"50":6391,"CH":6392,"CAA":6393,"DT":6394,"SP":6395,"TA":6396,"UJ":6397,"Vision":6398,"aÄ":6399,"aug":6400,"bor":6401,"bing":6402,"back":6403,"che":6404,"col":6405,"cul":6406,"cest":6407,"come":6408,"csen":6409,"capes":6410,"da":6411,"de":6412,"dhan":6413,"ef":6414,"ek":6415,"ees":6416,"ean":6417,"ech":6418,"fe":6419,"fis":6420,"gs":6421,"gear":6422,"guns":6423,"hot":6424,"hum":6425,"iate":6426,"jo":6427,"kn":6428,"ker":6429,"kut":6430,"key":6431,"lau":6432,"laces":6433,"load":6434,"mas":6435,"mid":6436,"mons":6437,"math":6438,"nered":6439,"niel":6440,"nesty":6441,"oich":6442,"oons":6443,"pa":6444,"pat":6445,"pent":6446,"pics":6447,"ror":6448,"rig":6449,"rised":6450,"rica":6451,"sons":6452,"sych":6453,"ta":6454,"uj":6455,"uah":6456,"vo":6457,"writ":6458,"yer":6459,"yan":6460,"zky":6461,"¡ãĥ":6462,"¥ãĥ":6463,"«ãĤ":6464,"´ãĤ":6465,"´ãģ®":6466,"µm":6467,"Ã¤":6468,"åł":6469,"Ġi":6470,"Ġz":6471,"Ġir":6472,"Ġere":6473,"Ġign":6474,"ĠæĪ¦":6475,"įiÄĩ":6476,"Ńãĥ":6477,"Ġton":6478,"Ġtall":6479,"Ġtast":6480,"Ġtree":6481,"Ġtape":6482,"Ġturre":6483,"Ġtiger":6484,"hem":6485,"Ġau":6486,"Ġaro":6487,"Ġaug":6488,"Ġaware":6489,"inis":6490,"inth":6491,"inary":6492,"inence":6493,"Ġtheories":6494,"erning":6495,"onent":6496,"onald":6497,"reg":6498,"rect":6499,"Ġsn":6500,"Ġsom":6501,"Ġsess":6502,"Ġsell":6503,"Ġsport":6504,"Ġsail":6505,"Ġsets":6506,"Ġsung":6507,"Ġsink":6508,"Ġsales":6509,"Ġsought":6510,"Ġsundial":6511,"eding":6512,"Ġovation":6513,"Ġwr":6514,"Ġwore":6515,"Ġwings":6516,"Ġwound":6517,"Ġwreath":6518,"ndered":6519,"atar":6520,"atile":6521,"atics":6522,"atures":6523,"atched":6524,"athered":6525,"orge":6526,"orous":6527,"orph":6528,"orring":6529,"itish":6530,"itude":6531,"Ġcis":6532,"Ġcot":6533,"Ġcell":6534,"Ġcities":6535,"Ġcous":6536,"Ġcrop":6537,"Ġfine":6538,"Ġfast":6539,"Ġfles":6540,"Ġfring":6541,"Ġfaced":6542,"Ġfont":6543,"Ġfert":6544,"Ġfighters":6545,"Ġfashion":6546,"ening":6547,"enge":6548,"isi":6549,"isis":6550,"arc":6551,"arves":6552,"Ġpo":6553,"Ġpil":6554,"Ġpover":6555,"Ġpace":6556,"Ġpose":6557,"Ġpath":6558,"Ġpier":6559,"Ġpatch":6560,"Ġpowers":6561,"Ġpsych":6562,"anas":6563,"alm":6564,"aling":6565,"alato":6566,"Ġinside":6567,"Ġinstruct":6568,"Ġinaug":6569,"Ġbed":6570,"Ġbes":6571,"Ġbig":6572,"Ġbur":6573,"Ġbare":6574,"Ġbound":6575,"Ġdri":6576,"iche":6577,"iced":6578,"icro":6579,"icle":6580,"Ġtourn":6581,"roc":6582,"Ġmist":6583,"Ġmap":6584,"Ġmob":6585,"Ġmounts":6586,"Ġmounted":6587,"Ġhull":6588,"Ġhoard":6589,"Ġhapp":6590,"ĠTreat":6591,"ĠTamp":6592,"ĠTenn":6593,"ĠTuck":6594,"Ġrear":6595,"Ġrevol":6596,"lege":6597,"lections":6598,"levision":6599,"letic":6600,"Ġthick":6601,"Ġgig":6602,"Ġgate":6603,"Ġgets":6604,"Ġgathered":6605,"ented":6606,"ental":6607,"ĠAction":6608,"ĠAkhen":6609,"ĠAstronomical":6610,"ilomet":6611,"ĠSk":6612,"ĠSign":6613,"ĠSub":6614,"ĠSaj":6615,"ĠSilver":6616,"ĠSpan":6617,"ĠSIM":6618,"strips":6619,"eli":6620,"eling":6621,"elerated":6622,"oma":6623,"Ġnorthern":6624,"Ġnatural":6625,"Ġninth":6626,"Ġlin":6627,"Ġlose":6628,"Ġlists":6629,"Ġlines":6630,"Ġliving":6631,"Ġlibrary":6632,"ĠCly":6633,"ĠCop":6634,"ĠCoin":6635,"ĠColl":6636,"ĠCub":6637,"ĠCana":6638,"ĠCatt":6639,"ador":6640,"adow":6641,"Ġeighth":6642,"irn":6643,"irra":6644,"irmed":6645,"olk":6646,"olute":6647,"ĠThebes":6648,"ivo":6649,"ivated":6650,"lyph":6651,"otive":6652,"otilla":6653,"Ġfort":6654,"Ġforth":6655,"iments":6656,"imeter":6657,"owie":6658,"ighed":6659,"aches":6660,"achel":6661,"Ġasking":6662,"idian":6663,"ĠMy":6664,"ĠMit":6665,"ĠMir":6666,"ĠMot":6667,"ĠMaj":6668,"ura":6669,"urity":6670,"aya":6671,"ĠBU":6672,"ĠBres":6673,"ĠBurn":6674,"ĠBoth":6675,"ĠBrist":6676,"ĠBowie":6677,"ether":6678,"etts":6679,"etzky":6680,"ĠIR":6681,"ĠImber":6682,"ĠICA":6683,"Ġhero":6684,"Ġstern":6685,"Ġstages":6686,"Ġstained":6687,"Ġstories":6688,"Ġstores":6689,"Ġstroke":6690,"uting":6691,"ulace":6692,"Ġalone":6693,"ĠFar":6694,"ĠFil":6695,"ĠFam":6696,"ĠFly":6697,"ĠFru":6698,"ĠFear":6699,"ĠFoot":6700,"ĠFront":6701,"ĠFurther":6702,"ĠFuj":6703,"Ġdevolved":6704,"ĠPe":6705,"ĠPat":6706,"ĠPan":6707,"ĠPur":6708,"ĠPred":6709,"ĠPotential":6710,"ĠPius":6711,"ĠPtah":6712,"vertis":6713,"ĠHog":6714,"ĠHymns":6715,"rael":6716,"ĠJr":6717,"ĠJon":6718,"ĠJos":6719,"ĠJenn":6720,"ĠJAR":6721,"ĠJersey":6722,"ĠJorge":6723,"ĠNW":6724,"ĠNa":6725,"ĠNon":6726,"ĠNever":6727,"ĠNote":6728,"ĠNatural":6729,"ĠNCAA":6730,"ĠNUJ":6731,"ĠNatar":6732,"unt":6733,"ode":6734,"ume":6735,"Ġwhitish":6736,"Ġsemi":6737,"Ġselection":6738,"ĠGames":6739,"ĠGround":6740,"ĠGuth":6741,"ĠGroup":6742,"ĠGliding":6743,"ĠRif":6744,"ĠRoll":6745,"ĠRace":6746,"ĠRaj":6747,"ĠRob":6748,"ĠRush":6749,"ĠRoom":6750,"ĠRules":6751,"ĠRashtra":6752,"ĠRyan":6753,"ava":6754,"Ġancest":6755,"usetts":6756,"Ġconst":6757,"Ġconvin":6758,"Ġconsequ":6759,"ĠDh":6760,"ĠDan":6761,"ĠDate":6762,"ĠDave":6763,"ĠDennis":6764,"thoff":6765,"ĠEy":6766,"ĠWake":6767,"ĠWirra":6768,"ĠLore":6769,"ĠLast":6770,"ĠLiz":6771,"ĠLeop":6772,"ĠLove":6773,"ĠLemon":6774,"ĠLocal":6775,"orders":6776,"Ġitem":6777,"pting":6778,"allica":6779,"Ġoracles":6780,"istas":6781,"istry":6782,"illes":6783,"Ġshare":6784,"Ġshape":6785,"essed":6786,"ĠOl":6787,"ĠOur":6788,"orted":6789,"Ġvul":6790,"Ġvener":6791,"Ġvision":6792,"Ġvint":6793,"Ġvirt":6794,"iance":6795,"antly":6796,"antry":6797,"abor":6798,"Ġrh":6799,"Ġris":6800,"Ġring":6801,"Ġrac":6802,"Ġriver":6803,"Ġrural":6804,"Ġracing":6805,"Ġrays":6806,"Ġchart":6807,"Ġchief":6808,"Ġchivo":6809,"quate":6810,"opher":6811,"opolis":6812,"ĠâĤ":6813,"ĠUl":6814,"Ġexport":6815,"Ġexchange":6816,"Ġleap":6817,"Ġleave":6818,"aples":6819,"Ġsuitable":6820,"ourse":6821,"ourney":6822,"ĠKe":6823,"ĠKh":6824,"ĠKhen":6825,"ĠKobe":6826,"ĠKerry":6827,"ĠKirn":6828,"ĠStan":6829,"ĠStand":6830,"ĠStupa":6831,"ĠStorring":6832,"ĠStaples":6833,"inea":6834,"ĠVI":6835,"ĠVer":6836,"ĠVice":6837,"Ġnotable":6838,"oving":6839,"Ġkilomet":6840,"Ġrecent":6841,"Ġrecover":6842,"Ġrecount":6843,"oglyph":6844,"ĠChris":6845,"ĠChih":6846,"ranean":6847,"ella":6848,"ĠHein":6849,"Ġarrest":6850,"Ġarranged":6851,"Ġperce":6852,"Ġperhaps":6853,"Ġperception":6854,"Ġunc":6855,"Ġunified":6856,"Ġunless":6857,"Ġunkn":6858,"Ġrose":6859,"Ġairline":6860,"Ġairstrips":6861,"Ġincidents":6862,"Ġtext":6863,"Ġ43":6864,"Ġ422":6865,"Ġcontained":6866,"Ġcontrovers":6867,"Ġ2016":6868,"phor":6869,"Ġintense":6870,"iza":6871,"Ġimag":6872,"Ġscor":6873,"Ġscen":6874,"dule":6875,"achute":6876,"achusetts":6877,"Ġdescend":6878,"Ġdisg":6879,"Ġdisru":6880,"Ġ57":6881,"Ġagents":6882,"Ġoffsh":6883,"Ġoffenders":6884,"oughts":6885,"Ġclim":6886,"Ġclutch":6887,"rons":6888,"Ġjet":6889,"Ġjack":6890,"Ġjokes":6891,"Ġjourney":6892,"Ġparty":6893,"Ġparties":6894,"Ġupris":6895,"ultural":6896,"Ġcomprom":6897,"Ġcomponents":6898,"ĠThus":6899,"ĠThree":6900,"Ġadmitted":6901,"Ġneigh":6902,"Ġaftermath":6903,"ĠAlice":6904,"ĠAlien":6905,"ĠAlbert":6906,"Ġresign":6907,"Ġresigned":6908,"ĠReview":6909,"Ġcommem":6910,"Ġbasket":6911,"Ġspeaking":6912,"Ġspeech":6913,"Ġflo":6914,"Ġflood":6915,"Ġflotilla":6916,"Ġpref":6917,"Ġprecious":6918,"Ġremix":6919,"Ġreminis":6920,"ĠArdhan":6921,"ĠArniel":6922,"ĠAraya":6923,"Ġ63":6924,"Ġ69":6925,"Ġgrown":6926,"ĠUnbreak":6927,"kyl":6928,"Ġactually":6929,"ĠDean":6930,"Ġrepet":6931,"Ġreporter":6932,"Ġ72":6933,"Ġ83":6934,"Ġ84":6935,"Ġ85":6936,"Ġ89":6937,"Ġretention":6938,"Ġretiring":6939,"Ġspruce":6940,"Ġcharco":6941,"tenance":6942,"Ġinterior":6943,"Ġintervention":6944,"Ġsym":6945,"formed":6946,"Ġcentre":6947,"ublican":6948,"Ġpray":6949,"Ġprice":6950,"indisi":6951,"Ġbuy":6952,"Ġbuck":6953,"Ġsuperv":6954,"Ġsupreme":6955,"issipp":6956,"Ġdecorated":6957,"ĠAsh":6958,"wealth":6959,"Ġ97":6960,"Ġ900":6961,"Ġaccur":6962,"Ġaccidents":6963,"Ġamnesty":6964,"Ġsoil":6965,"Ġsoft":6966,"Ġdepos":6967,"Ġoperates":6968,"orthy":6969,"enses":6970,"Ġserious":6971,"ifications":6972,"lando":6973,"Ġnumism":6974,"Ġsurpass":6975,"Ġarmament":6976,"Ġarmlets":6977,"aza":6978,"Ġministers":6979,"rency":6980,"athi":6981,"ismal":6982,"Ġsubmitted":6983,"Ġseverely":6984,"Ġfollows":6985,"orne":6986,"ornia":6987,"Ġpositively":6988,"Ġtraw":6989,"Ġ1983":6990,"atherine":6991,"Ġhumili":6992,"Ġheads":6993,"Ġheadgear":6994,"Ġdoing":6995,"Ġmoving":6996,"Ġtransit":6997,"Ġplane":6998,"Ġplanets":6999,"Ġentry":7000,"Ġentering":7001,"Ġentitled":7002,"rolled":7003,"Ġsmallest":7004,"ĠJohnny":7005,"ĠCollege":7006,"Ġimperson":7007,"Ġacres":7008,"Ġdefend":7009,"Ġdefensive":7010,"Ġdemolition":7011,"Ġsigns":7012,"Ġsigning":7013,"Ġdeveloping":7014,"Ġanyone":7015,"Ġanything":7016,"Ġrepresentatives":7017,"Ġperformances":7018,"porate":7019,"Ġwinter":7020,"Ġwinner":7021,"Ġ1912":7022,"Ġ1914":7023,"Ġ1917":7024,"Ġ1865":7025,"Ġspecie":7026,"Ġspeculation":7027,"Ġinfring":7028,"ĠBeh":7029,"ĠBecht":7030,"Ġaerob":7031,"Ġcritically":7032,"Ġfilmed":7033,"Ġ151":7034,"Ġ157":7035,"ĠIndra":7036,"Ġstarts":7037,"Ġstarring":7038,"Ġannot":7039,"Ġmusicians":7040,"Ġmyst":7041,"Ġmyself":7042,"Ġcontinu":7043,"ĠWhig":7044,"ĠLeo":7045,"ĠLeon":7046,"ĠLeÃ³n":7047,"Ġpresided":7048,"structions":7049,"aptismal":7050,"ĠNoises":7051,"Ġconcur":7052,"Ġconcludes":7053,"Ġconcerning":7054,"fully":7055,"Ġsongwrit":7056,"ĠIsrael":7057,"ĠPhys":7058,"Ġ1944":7059,"Ġvaries":7060,"Ġtrading":7061,"Ġbelieve":7062,"Ġdisturb":7063,"Ġdistributed":7064,"Ġdistribution":7065,"Ġmilitia":7066,"Ġgoverned":7067,"ĠIIFA":7068,"Ġ130":7069,"Ġstatus":7070,"Ġappears":7071,"Ġappropri":7072,"construction":7073,"Ġactivists":7074,"ĠColumbia":7075,"Ġfamous":7076,"Ġprompted":7077,"Ġsett":7078,"Ġsetting":7079,"Ġweighed":7080,"Ġpopulace":7081,"ĠAdd":7082,"Ġprotected":7083,"Ġengraver":7084,"ĠCommittee":7085,"plement":7086,"Ġnearby":7087,"Ġemotion":7088,"Ġemotional":7089,"Ġefforts":7090,"Ġ1936":7091,"Ġrequested":7092,"Ġgunboat":7093,"Ġartist":7094,"Ġobservation":7095,"Ġcircle":7096,"Ġinstit":7097,"Ġfemin":7098,"ĠScreen":7099,"ĠGuest":7100,"ĠGuide":7101,"ĠGuinea":7102,"Ġturning":7103,"Ġsimultane":7104,"engue":7105,"yday":7106,"Ġparcel":7107,"Ġlimiting":7108,"Ġincreasing":7109,"Ġcrimin":7110,"Ġcrisis":7111,"Ġcommunities":7112,"Ġmembership":7113,"Ġpresented":7114,"Ġlisted":7115,"ĠOrlando":7116,"Ġprimaries":7117,"Ġdepiction":7118,"nead":7119,"ĠTeget":7120,"ĠDesign":7121,"Ġshots":7122,"Ġshotguns":7123,"Ġattempts":7124,"Ġelse":7125,"Ġdelay":7126,"Ġdeliber":7127,"Ġlargest":7128,"ĠUSS":7129,"Ġtroub":7130,"Ġconfirm":7131,"ĠDarling":7132,"ĠDarby":7133,"ĠDarcsen":7134,"Ġcompeted":7135,"Ġattacking":7136,"Ġcorrect":7137,"Ġcorporate":7138,"Ġforest":7139,"Ġforehead":7140,"Ġputting":7141,"Ġdestination":7142,"ĠManiac":7143,"Ġ1962":7144,"Ġcombat":7145,"isticated":7146,"Ġjoining":7147,"Ġsystems":7148,"Ġmythology":7149,"ymph":7150,"Ġfunctions":7151,"Ġshrines":7152,"ĠChristopher":7153,"Ġhistorian":7154,"Ġideology":7155,"Ġhostile":7156,"Ġlesser":7157,"Ġ1952":7158,"Ġreplied":7159,"ĠMVPs":7160,"Ġ1973":7161,"Ġavoid":7162,"iterranean":7163,"Ġpatrol":7164,"ĠActors":7165,"Ġamongst":7166,"ginia":7167,"ĠAbbes":7168,"ĠBrook":7169,"Ġshoulder":7170,"Ġpossibility":7171,"Ġsignificance":7172,"Ġcivilian":7173,"Ġrenov":7174,"Ġprocessions":7175,"Ġguitars":7176,"Ġviolence":7177,"Ġsimilarly":7178,"thesis":7179,"Ġfungi":7180,"Ġpeat":7181,"Ġdriven":7182,"Ġshootout":7183,"Ġruler":7184,"Ġruling":7185,"Ġintroduction":7186,"Ġpresidential":7187,"Ġcrucial":7188,"Ġflex":7189,"Ġpicked":7190,"stitution":7191,"ĠCalamity":7192,"Ġsectors":7193,"Ġvisual":7194,"Ġyoungest":7195,"Ġindicating":7196,"ĠÂµm":7197,"Ġfailure":7198,"ĠMetallica":7199,"ĠMaxim":7200,"rifice":7201,"Ġextent":7202,"apping":7203,"Ġkilling":7204,"Ġparticipate":7205,"Ġfocuses":7206,"Ġidentity":7207,"Ġwalls":7208,"Ġinspect":7209,"Ġreveal":7210,"Ġreveals":7211,"Ġlicence":7212,"Ġlicences":7213,"Ġlawyer":7214,"ĠMarc":7215,"Ġstrik":7216,"Ġdepartment":7217,"Ġdeparture":7218,"Ġbattlefield":7219,"Ġeveryone":7220,"Ġfictionalized":7221,"Ġavailability":7222,"Ġrecognition":7223,"Ġrecognised":7224,"Ġcredit":7225,"Ġprize":7226,"Ġpressure":7227,"Ġrevolutionaries":7228,"ĠBrindisi":7229,"ĠEarth":7230,"Ġexpression":7231,"Ġeffectively":7232,"Ġmaskrays":7233,"Ġfreedom":7234,"Ġhills":7235,"Ġranks":7236,"Ġranking":7237,"Ġexcluded":7238,"Ġquality":7239,"Ġqualified":7240,"Ġdoesn":7241,"ãĥ´ãĤ":7242,"Ġruined":7243,"Ġsacrifice":7244,"Ġclubs":7245,"Ġinvest":7246,"Ġsearching":7247,"Ġapplication":7248,"Ġjudged":7249,"Ġsupposed":7250,"Ġappoint":7251,"Ġsymbolic":7252,"Ġaffected":7253,"Ġlifet":7254,"Ġlifted":7255,"ĠKnowledge":7256,"Ġ1880":7257,"Ġcoaching":7258,"Ġautobi":7259,"Ġcaptain":7260,"Ġdrove":7261,"Ġeconomy":7262,"ĠImp":7263,"ĠDahau":7264,"Ġkeeping":7265,"Ġ1895":7266,"Ġaddress":7267,"Ġpolych":7268,"Ġbattleship":7269,"Ġsexuality":7270,"Ġrifle":7271,"Ġsketches":7272,"Ġscholar":7273,"Ġopport":7274,"Ġpenetr":7275,"Ġmountains":7276,"Ġhorse":7277,"letes":7278,"ĠSlav":7279,"ĠSlov":7280,"ĠMagazine":7281,"Ġproblem":7282,"Ġorbit":7283,"Ġ1873":7284,"Ġdefeat":7285,"Ġmodeling":7286,"Ġdetermined":7287,"Ġceremonies":7288,"Ġcandidates":7289,"Ġsounding":7290,"Ġcrossed":7291,"ĠAfrica":7292,"ĠSynagogue":7293,"ĠSynthesis":7294,"elescope":7295,"ĠMediterranean":7296,"ĠHornung":7297,"Ġprohibited":7298,"Ġexpectations":7299,"Ġrooms":7300,"Ġagreement":7301,"Ġprepare":7302,"ĠAmendments":7303,"Ġcurrently":7304,"Ġmotor":7305,"Ġmicrolight":7306,"Ġlayer":7307,"ĠHollywood":7308,"ĠDemocr":7309,"ĠLankan":7310,"Ġ385":7311,"oselectivity":7312,"Ġdeprecation":7313,"Ġmintage":7314,"ĠScottie":7315,"ĠAgustin":7316,"Ġdreadnoughts":7317,"1822":7318,"Ġbenz":7319,"Ġbench":7320,"Ġdwell":7321,"Ġready":7322,"ĠSpalato":7323,"Ġlottery":7324,"ĠCorral":7325,"Ġwithdrew":7326,"ĠPlanning":7327,"Ġselectivity":7328,"ĠRamfis":7329,"ĠOtt":7330,"Ġexecutive":7331,"Ġunlike":7332,"Ġenemies":7333,"Ġsurrendered":7334,"Ġfunctional":7335,"ĠBattlefield":7336,"ĠTurkey":7337,"Ġcategor":7338,"Ġbiography":7339,"Ġhoped":7340,"Ġhanging":7341,"Ġhieroglyph":7342,"ĠToday":7343,"ĠMississipp":7344,"ĠBaham":7345,"Ġathletes":7346,"ĠOlympics":7347,"Ġreconstruction":7348,"Ġmanufacture":7349,"Ġinstrumentation":7350,"Ġprinciple":7351,"burgh":7352,"scop":7353,"Ġpleased":7354,"Ġduty":7355,"Ġduties":7356,"Ġgarrison":7357,"ĠAcadem":7358,"ĠSchmid":7359,"Ġbeauty":7360,"Ġbeautiful":7361,"ĠHuman":7362,"Ġangry":7363,"ĠWriting":7364,"Ġvanished":7365,"ĠKimmy":7366,"ĠVariety":7367,"Ġaggressive":7368,"ĠYogishvara":7369,"Ġpreceding":7370,"Ġundertake":7371,"Ġsuperior":7372,"Ġsurface":7373,"Ġentertain":7374,"Ġdiscussed":7375,"Ġcolumns":7376,"Ġresponded":7377,"ĠCanadian":7378,"egro":7379,"Ġsophisticated":7380,"Ġinhab":7381,"Ġbonus":7382,"Ġbarracks":7383,"Ġmummies":7384,"Ġnormally":7385,"ĠPromoted":7386,"ĠPippen":7387,"ĠHait":7388,"ĠRadetzky":7389,"Ġornament":7390,"ĠOffice":7391,"Ġvoice":7392,"Ġvessels":7393,"Ġkeybo":7394,"Ġpermission":7395,"Ġunpopular":7396,"Ġairships":7397,"Ġscrutiny":7398,"Ġdismissed":7399,"Ġdisappoin":7400,"ĠShawn":7401,"Ġremembering":7402,"Ġgrossing":7403,"ĠUnlike":7404,"Ġfinancial":7405,"Ġunderstand":7406,"Ġintersect":7407,"Ġsupporters":7408,"Ġsubstituted":7409,"ĠBeauf":7410,"ĠAdriatic":7411,"Ġrequirements":7412,"Ġepithets":7413,"ĠOriginally":7414,"Ġvalidity":7415,"Ġpossession":7416,"Ġsatisfy":7417,"Ġelectoral":7418,"Ġgraduated":7419,"Ġsanctuary":7420,"Ġreinforcements":7421,"ĠPorfirio":7422,"Ġwanting":7423,"Ġblue":7424,"Ġdimethyl":7425,"Ġlikely":7426,"ĠCrim":7427,"ĠCavaliers":7428,"Ġeasily":7429,"ĠNubia":7430,"Ġanalysis":7431,"Ġatmospher":7432,"Ġvicinity":7433,"Ġvacant":7434,"Ġritual":7435,"ĠVirginia":7436,"ĠChapel":7437,"Ġpercentage":7438,"Ġabandoned":7439,"Ġenlisted":7440,"Ġclothing":7441,"Ġpremiere":7442,"Ġmechanism":7443,"Ġsubstantial":7444,"Ġrailroad":7445,"Ġspecimen":7446,"Ġtemporarily":7447,"ĠLeadeth":7448,"Ġvertical":7449,"ĠCommonwealth":7450,"Ġoccupied":7451,"ĠAndhaka":7452,"Ġdiagnosed":7453,"Ġfarmland":7454,"ĠAgainst":7455,"Ġmethylene":7456,"Ġcausing":7457,"Ġpredecessors":7458,"Ġaccomplish":7459,"Ġpolytheistic":7460,"ĠAerodrome":7461,"ĠMontenegro":7462,"ĠYugoslavia":7463,"ªãĤ¢":7464,"Ġsweep":7465,"Ġwitness":7466,"Ġfantasy":7467,"Ġbombers":7468,"Ġrejected":7469,"Ġrevenge":7470,"ĠCouncil":7471,"ĠMassachusetts":7472,"ĠBryant":7473,"Ġstingray":7474,"Ġalleged":7475,"Ġconstantly":7476,"ĠWaldrons":7477,"Ġcomedian":7478,"Ġsucceeded":7479,"ĠVienna":7480,"Ġroughly":7481,"Ġenvisioned":7482,"Ġdisappeared":7483,"ĠEgyptologist":7484,"Ġsubmarine":7485,"ĠAmadito":7486,"Ġvariants":7487,"Ġexpansion":7488,"Ġpromulgated":7489,"Ġpostcards":7490,"ĠOrdnance":7491,"Ġcruelty":7492,"ĠCalifornia":7493,"Ġexcavation":7494,"ministration":7495,"Ġframework":7496,"mniscient":7497,"Ġnucleophilic":7498,"Ġacknowled":7499,"oichi":7500,"¡ãĥ«ãĤ":7501,"¥ãĥªãĤ¢":7502,"´ãģ®ãĥ´ãĤ":7503,"åł´ãģ®ãĥ´ãĤ":7504,"ĠæĪ¦åł´ãģ®ãĥ´ãĤ":7505,"Ńãĥ¥ãĥªãĤ¢":7506,"Ġtaste":7507,"Ġturrets":7508,"Ġaugmented":7509,"Ġcistern":7510,"Ġcotton":7511,"Ġflesh":7512,"Ġpoverty":7513,"Ġbarely":7514,"Ġmistaken":7515,"ĠTampa":7516,"ĠTennant":7517,"ĠAkhenaten":7518,"ĠSajid":7519,"ĠSpanish":7520,"ĠClyde":7521,"ĠCollins":7522,"ĠCanaan":7523,"ĠBreslau":7524,"ĠBristol":7525,"ĠImbert":7526,"ĠICAO":7527,"ĠHoglan":7528,"ĠNevertheless":7529,"ĠNataraja":7530,"ĠGroundsel":7531,"ĠGuthrie":7532,"ĠRolling":7533,"ĠRashtrakut":7534,"Ġvintage":7535,"Ġvirtually":7536,"ĠStorrington":7537,"ĠChihuah":7538,"Ġoffshore":7539,"Ġreminiscent":7540,"ĠArdhanar":7541,"ĠUnbreakable":7542,"Ġcharcoal":7543,"ĠNoisescapes":7544,"ĠPhysicist":7545,"ĠTegetthoff":7546,"ĠManiacs":7547,"ĠMississippi":7548,"ĠSchmidt":7549,"Ġkeyboards":7550,"¡ãĥ«ãĤŃãĥ¥ãĥªãĤ¢":7551,"ĠæĪ¦åł´ãģ®ãĥ´ãĤ¡ãĥ«ãĤŃãĥ¥ãĥªãĤ¢":7552,"11":7553,"21":7554,"34":7555,"42":7556,"60":7557,"87":7558,"AF":7559,"Bron":7560,"FC":7561,"LC":7562,"Mus":7563,"Matters":7564,"NA":7565,"PPL":7566,"WASP":7567,"WII":7568,"YO":7569,"ais":7570,"aur":7571,"aet":7572,"aun":7573,"ares":7574,"ban":7575,"bow":7576,"cast":7577,"crib":7578,"cons":7579,"cÃŃa":7580,"dul":7581,"dec":7582,"dden":7583,"ein":7584,"eper":7585,"eah":7586,"gar":7587,"gam":7588,"gah":7589,"graph":7590,"gement":7591,"grow":7592,"gency":7593,"grand":7594,"hl":7595,"hay":7596,"hug":7597,"hman":7598,"house":7599,"ij":7600,"iad":7601,"iated":7602,"iatus":7603,"ji":7604,"jou":7605,"jun":7606,"kner":7607,"llu":7608,"lusion":7609,"loud":7610,"mon":7611,"mes":7612,"ming":7613,"mith":7614,"mill":7615,"more":7616,"mark":7617,"nz":7618,"now":7619,"ners":7620,"oj":7621,"pid":7622,"ration":7623,"rus":7624,"rast":7625,"rors":7626,"rster":7627,"ser":7628,"sity":7629,"sulf":7630,"sbur":7631,"tc":7632,"tor":7633,"tole":7634,"trolled":7635,"uw":7636,"uge":7637,"uiz":7638,"uance":7639,"uccess":7640,"uaries":7641,"uert":7642,"vant":7643,"vine":7644,"vement":7645,"vÃ¡n":7646,"war":7647,"went":7648,"wame":7649,"west":7650,"well":7651,"xford":7652,"yard":7653,"yoming":7654,"zent":7655,"zure":7656,"zawa":7657,"¶rster":7658,"Ã¶rster":7659,"Ġ?":7660,"ĠÅ":7661,"Ġri":7662,"Ġelf":7663,"Ġtam":7664,"Ġtim":7665,"Ġtong":7666,"Ġtub":7667,"Ġtry":7668,"Ġtrying":7669,"Ġtelling":7670,"Ġtells":7671,"Ġtaught":7672,"Ġtribute":7673,"hearts":7674,"Ġavi":7675,"Ġaired":7676,"Ġaunt":7677,"inson":7678,"Ġtheat":7679,"ero":7680,"eric":7681,"eret":7682,"ergy":7683,"oni":7684,"onn":7685,"onic":7686,"onel":7687,"onton":7688,"onjou":7689,"rested":7690,"Ġsen":7691,"Ġsle":7692,"Ġsand":7693,"Ġsap":7694,"Ġsour":7695,"Ġsave":7696,"Ġsie":7697,"Ġske":7698,"Ġselling":7699,"edication":7700,"edding":7701,"Ġori":7702,"Ġoption":7703,"Ġwis":7704,"nds":7705,"athed":7706,"oris":7707,"orable":7708,"orious":7709,"orative":7710,"itar":7711,"itic":7712,"itab":7713,"Ġcow":7714,"Ġcore":7715,"Ġcard":7716,"Ġcyl":7717,"Ġchest":7718,"Ġfer":7719,"Ġfals":7720,"ena":7721,"enen":7722,"enue":7723,"encing":7724,"enoid":7725,"isia":7726,"isition":7727,"isations":7728,"isational":7729,"esp":7730,"aro":7731,"ario":7732,"arashtra":7733,"Ġpion":7734,"Ġpot":7735,"Ġpine":7736,"Ġpure":7737,"Ġpix":7738,"Ġports":7739,"Ġpush":7740,"Ġpole":7741,"aning":7742,"anic":7743,"anide":7744,"anium":7745,"alo":7746,"alog":7747,"alach":7748,"alance":7749,"alty":7750,"Ġinferred":7751,"Ġinsec":7752,"Ġbomb":7753,"Ġbaptismal":7754,"Ġbalance":7755,"asion":7756,"asters":7757,"asized":7758,"Ġder":7759,"Ġdom":7760,"Ġdur":7761,"Ġdun":7762,"Ġdru":7763,"Ġdial":7764,"Ġdub":7765,"Ġdry":7766,"Ġdens":7767,"Ġdating":7768,"Ġdrop":7769,"Ġdunk":7770,"Ġduff":7771,"Ġdedication":7772,"icial":7773,"icap":7774,"icely":7775,"icens":7776,"icating":7777,"icipal":7778,"Ġtoured":7779,"Ġtoler":7780,"Ġtools":7781,"roud":7782,"rooted":7783,"Ġmason":7784,"Ġmarg":7785,"Ġmarch":7786,"Ġmoon":7787,"Ġmutiny":7788,"Ġmicro":7789,"Ġhom":7790,"Ġhund":7791,"Ġhire":7792,"Ġhung":7793,"Ġhole":7794,"Ġhomes":7795,"Ġhiatus":7796,"ĠTw":7797,"ĠTun":7798,"ĠTour":7799,"ĠTime":7800,"ĠTax":7801,"Ġrej":7802,"Ġrele":7803,"Ġreign":7804,"Ġreach":7805,"Ġreact":7806,"leton":7807,"Ġthigh":7808,"Ġthorns":7809,"Ġgran":7810,"Ġgover":7811,"Ġgone":7812,"Ġgale":7813,"Ġgray":7814,"Ġgaining":7815,"ĠAra":7816,"ĠAround":7817,"ĠAware":7818,"ĠASI":7819,"ĠAzure":7820,"ilation":7821,"ilers":7822,"ilies":7823,"ilisation":7824,"ĠSy":7825,"ĠSing":7826,"ĠSong":7827,"ĠSite":7828,"ĠSox":7829,"ĠSchol":7830,"ĠSpir":7831,"ĠSquare":7832,"ĠSaf":7833,"ĠSnow":7834,"ĠSzent":7835,"stone":7836,"stitu":7837,"stein":7838,"stvÃ¡n":7839,"omed":7840,"omore":7841,"omorph":7842,"cture":7843,"ami":7844,"amorous":7845,"Ġnour":7846,"Ġnick":7847,"Ġnavy":7848,"Ġniche":7849,"Ġliber":7850,"Ġlieutenant":7851,"ĠCD":7852,"ĠCard":7853,"ĠCome":7854,"ĠCook":7855,"ĠClay":7856,"ĠCaves":7857,"ĠCatherine":7858,"ady":7859,"aders":7860,"adict":7861,"adiad":7862,"Ġelected":7863,"Ġetc":7864,"irical":7865,"olf":7866,"olar":7867,"olished":7868,"Ġwash":7869,"Ġwashed":7870,"ivered":7871,"iviÄ":7872,"Ġonto":7873,"lyn":7874,"otry":7875,"otence":7876,"otrophic":7877,"Ġforg":7878,"imited":7879,"imony":7880,"Ġbearing":7881,"Ġaside":7882,"Ġashes":7883,"ider":7884,"idation":7885,"ĠMel":7886,"ĠMad":7887,"ĠMain":7888,"ĠMos":7889,"ĠMill":7890,"ĠMont":7891,"ĠMicrol":7892,"ĠMaza":7893,"urs":7894,"uris":7895,"urring":7896,"ĠBon":7897,"ĠBur":7898,"ĠBird":7899,"ĠBoard":7900,"ĠBanks":7901,"ĠBanner":7902,"etic":7903,"etus":7904,"ĠIver":7905,"ĠIllu":7906,"ĠIstvÃ¡n":7907,"Ġhewn":7908,"Ġstab":7909,"Ġstings":7910,"Ġstair":7911,"Ġstalled":7912,"Ġstood":7913,"Ġstret":7914,"Ġstrand":7915,"Ġstability":7916,"Ġstayed":7917,"sex":7918,"utation":7919,"ulate":7920,"ulations":7921,"Ġaligned":7922,"Ġalleg":7923,"Ġalludes":7924,"Ġaltered":7925,"Ġaltar":7926,"Ġalkyl":7927,"teries":7928,"ĠFo":7929,"ĠFre":7930,"ĠFle":7931,"ĠFive":7932,"ĠFather":7933,"ĠFifth":7934,"ĠFaul":7935,"ĠFÃ¶rster":7936,"ĠPir":7937,"ĠPul":7938,"ĠPop":7939,"ĠPoll":7940,"ĠPass":7941,"ĠPerm":7942,"ĠPez":7943,"ĠPicture":7944,"ĠPasc":7945,"ĠPtole":7946,"ĠHas":7947,"ĠHav":7948,"ĠHab":7949,"ĠHell":7950,"ĠHerm":7951,"ĠHang":7952,"ĠHamil":7953,"ĠHorthy":7954,"ĠHuert":7955,"ĠHonjou":7956,"Ġisn":7957,"rave":7958,"raged":7959,"ĠJa":7960,"ĠJes":7961,"ĠJab":7962,"ĠJud":7963,"ĠJournalists":7964,"ĠJoint":7965,"ĠNum":7966,"ĠNav":7967,"ĠNass":7968,"ĠNature":7969,"ĠNik":7970,"ĠNetwork":7971,"ĠNDT":7972,"ĠNPPL":7973,"ĠNadiad":7974,"unner":7975,"odic":7976,"odore":7977,"odox":7978,"umin":7979,"umar":7980,"Ġwharves":7981,"Ġseed":7982,"Ġsend":7983,"Ġsection":7984,"Ġsections":7985,"Ġseats":7986,"Ġseemed":7987,"ĠGe":7988,"ĠGen":7989,"ĠGree":7990,"ĠGene":7991,"ĠGiers":7992,"ĠGili":7993,"ĠGanes":7994,"ĠRo":7995,"ĠRon":7996,"ĠRic":7997,"ĠRoy":7998,"ĠRook":7999}